<unk>	0
<s>	0
</s>	0
.	-3.29919
,	-3.67779
의	-3.95203
▁	-4.42175
는	-4.45539
)	-4.46081
(	-4.51651
에	-4.517
년	-4.58338
을	-4.58482
이	-4.79587
은	-4.80578
를	-4.91084
가	-4.92663
로	-5.19187
에서	-5.26337
월	-5.28551
과	-5.33436
▁있다	-5.47516
와	-5.52754
으로	-5.53907
일	-5.56482
▁이	-5.64951
이다	-5.65061
인	-5.67979
도	-5.71615
한	-5.85213
▁수	-5.87436
▁1	-5.98994
▁2	-6.05751
고	-6.16384
▁그	-6.19956
▁3	-6.22409
▁있는	-6.37617
▁제	-6.40788
하는	-6.41117
하고	-6.41851
▁"	-6.4583
지	-6.46006
▁4	-6.46087
"	-6.4694
기	-6.5743
다	-6.59281
하여	-6.59708
했다	-6.60632
하였다	-6.61088
▁5	-6.61271
▁《	-6.61894
▁(	-6.65073
'	-6.67267
나	-6.6975
▁한	-6.71432
시	-6.71998
▁'	-6.73524
해	-6.74877
할	-6.74898
사	-6.75809
만	-6.76026
▁6	-6.77077
▁10	-6.81896
▁중	-6.83306
》	-6.83525
서	-6.83598
대	-6.83633
자	-6.84073
·	-6.8419
-	-6.84497
▁8	-6.87444
▁7	-6.87521
년에	-6.90598
▁한다	-6.90984
에게	-6.9167
▁후	-6.93047
▁~	-6.94919
▁그는	-6.9598
▁이후	-6.97456
▁되었다	-6.97797
▁9	-6.98342
▁등	-6.98767
리	-6.9938
적	-6.99446
스	-7.01129
된	-7.01142
▁12	-7.03429
주	-7.04781
성	-7.04844
▁다른	-7.05065
▁같은	-7.0711
되었다	-7.07269
▁대한	-7.07319
▁두	-7.08893
라	-7.09585
),	-7.10498
▁때	-7.11972
▁및	-7.12105
부	-7.1479
한다	-7.15519
하게	-7.15592
▁11	-7.15818
수	-7.16079
▁전	-7.16946
▁또한	-7.19529
어	-7.20137
▁함께	-7.20212
이며	-7.20661
2	-7.22045
개	-7.23414
()	-7.2518
▁위해	-7.25298
에서는	-7.2534
에는	-7.26581
차	-7.27336
세	-7.28353
명	-7.28915
화	-7.29748
상	-7.29955
▁)	-7.30121
면	-7.31926
라는	-7.33111
▁시	-7.33198
되어	-7.33346
▁주	-7.34643
1	-7.35762
▁그러나	-7.36239
제	-7.3698
동	-7.37182
▁그의	-7.37615
진	-7.37941
게	-7.37949
▁때문에	-7.38253
라고	-7.39177
아	-7.40043
적인	-7.40744
하기	-7.41748
▁가장	-7.41953
▁것을	-7.43201
▁일본	-7.43694
:	-7.4372
▁있으며	-7.45185
▁했다	-7.45443
들이	-7.45777
조	-7.46159
장	-7.46344
비	-7.47027
▁미국	-7.47132
전	-7.47986
▁더	-7.48326
▁formula	-7.4893
▁된다	-7.4896
정	-7.48971
▁따라	-7.4924
▁또는	-7.49582
m	-7.49865
이나	-7.49921
▁그리고	-7.5049
▁있었다	-7.50903
산	-7.50903
원	-7.50913
소	-7.51064
구	-7.51429
선	-7.51856
트	-7.51894
까지	-7.5228
회	-7.52569
오	-7.52622
호	-7.52815
▁것으로	-7.52995
미	-7.53697
▁당시	-7.54193
s	-7.54496
우	-7.54559
야	-7.54887
▁16	-7.5512
▁신	-7.569
▁오	-7.57242
하며	-7.58329
들은	-7.58669
▁15	-7.58789
▁의해	-7.5989
▁‘	-7.59903
▁많은	-7.60055
▁대	-7.61123
군	-7.61182
▁것이다	-7.61357
마	-7.61591
▁성	-7.61595
▁정	-7.62127
▁다음과	-7.62513
▁구	-7.62798
▁아	-7.63522
▁통해	-7.64307
▁다시	-7.6511
보	-7.65331
▁비	-7.65533
일에	-7.65618
▁역	-7.65911
▁해	-7.66267
하지	-7.66939
신	-7.67126
드	-7.67371
노	-7.67447
치	-7.68152
▁하는	-7.68432
▁사	-7.7082
▁고	-7.71509
▁것이	-7.71735
▁첫	-7.71934
▁17	-7.72231
▁대한민국의	-7.72415
3	-7.73694
타	-7.73714
위	-7.73742
이라는	-7.74143
들을	-7.74494
▁현재	-7.75993
’	-7.76084
▁세	-7.76157
▁큰	-7.76194
니	-7.76392
▁약	-7.76954
천	-7.78073
당	-7.78218
▁20	-7.78412
▁하였다	-7.78569
▁유	-7.78768
▁여러	-7.78935
▁가	-7.79303
형	-7.79407
▁소	-7.79541
하	-7.80921
▁모두	-7.80984
▁경우	-7.81278
/	-7.81523
▁한국	-7.81583
식	-7.8163
▁세계	-7.8165
▁14	-7.81779
▁장	-7.82242
현	-7.82326
하면서	-7.82536
무	-7.82779
▁모든	-7.83208
계	-7.83284
▁대한민국	-7.83341
▁데	-7.84058
용	-7.84235
▁강	-7.8435
개의	-7.84838
이라고	-7.85465
경	-7.86469
코	-7.87589
며	-7.87662
문	-7.87666
되고	-7.87761
▁다	-7.88152
▁등의	-7.88193
▁조	-7.88334
토	-7.89027
파	-7.89303
▁지	-7.89793
했고	-7.90708
중	-7.90902
하였고	-7.91005
▁다음	-7.91187
▁도	-7.91383
▁것은	-7.91392
포	-7.91599
▁내	-7.91757
모	-7.91758
였다	-7.91761
▁할	-7.91789
▁뒤	-7.92148
▁위한	-7.92262
이었다	-7.92569
되는	-7.9307
▁같다	-7.93407
km	-7.93667
▁미	-7.93986
유	-7.94436
▁13	-7.94667
관	-7.94847
바	-7.94879
공	-7.94939
▁안	-7.95489
카	-7.95705
데	-7.96055
▁부	-7.96189
루	-7.97597
▁양	-7.97716
▁자신의	-7.98123
▁선	-7.98423
▁-	-7.98708
▁일	-7.99101
국	-7.9923
년부터	-7.99378
적으로	-7.99525
즈	-7.99874
▁마	-8.00256
년에는	-8.00631
▁이러한	-8.00724
▁총	-8.00742
▁원	-8.00884
▁서	-8.01447
분	-8.02028
들	-8.02294
영	-8.02551
▁〈	-8.02664
된다	-8.02884
레	-8.02963
▁18	-8.02974
▁알	-8.03278
석	-8.03911
▁축구	-8.04133
▁기	-8.04448
▁등을	-8.04614
안	-8.0491
▁하지만	-8.05122
크	-8.055
▁대해	-8.05669
강	-8.05723
키	-8.06455
네	-8.06591
여	-8.07127
▁나	-8.07493
르	-8.07701
▁각	-8.07906
▁시즌	-8.0793
▁바	-8.07996
▁말	-8.08661
들의	-8.09086
▁위치한	-8.09348
보다	-8.09408
▁또	-8.09435
티	-8.09589
▁등이	-8.09793
▁영화	-8.09858
란	-8.10152
단	-8.10667
연	-8.10721
▁산	-8.1159
▁조선	-8.12002
학	-8.12289
프	-8.12317
▁A	-8.12436
간	-8.12547
▁30	-8.12667
▁동안	-8.13164
▁상	-8.1318
법	-8.14254
방	-8.14278
▁무	-8.14318
▁2010	-8.14518
▁중국	-8.1464
로서	-8.15085
히	-8.15189
▁하고	-8.15988
양	-8.1628
▁되어	-8.16462
▁호	-8.16619
재	-8.16662
▁B	-8.16685
4	-8.16768
디	-8.16881
▁자	-8.1692
부터	-8.17419
▁하	-8.1764
던	-8.17885
▁동	-8.18289
▁군	-8.185
후	-8.18919
▁미국의	-8.20199
▁리	-8.20235
▁이는	-8.20336
▁2008	-8.20422
▁반	-8.20469
▁보	-8.20724
세기	-8.21195
종	-8.21233
▁이를	-8.21508
▁특히	-8.21615
〉	-8.2197
▁새로운	-8.22245
▁같이	-8.22337
▁“	-8.22434
▁우	-8.22484
이자	-8.22531
▁번째	-8.22782
▁지역	-8.23186
▁모	-8.23331
▁진	-8.24131
권	-8.24264
번	-8.2427
▁된	-8.24528
▁현	-8.25046
역	-8.25113
▁19	-8.25748
이고	-8.25894
A	-8.25911
요	-8.26088
▁당	-8.26108
체	-8.26241
되었고	-8.26508
▁일부	-8.26596
C	-8.26866
▁김	-8.26928
년까지	-8.26979
▁2007	-8.27027
▁주로	-8.27069
로부터	-8.27075
▁2009	-8.27411
피	-8.27544
▁볼	-8.27732
▁노	-8.28178
▁있고	-8.28416
▁프랑스	-8.2858
교	-8.28585
▁2011	-8.28609
▁K	-8.28865
▁리그	-8.29008
▁2012	-8.29619
▁것	-8.30011
▁초	-8.30216
거	-8.30386
왕	-8.30446
실	-8.30455
러	-8.30612
▁S	-8.30708
▁잘	-8.30866
B	-8.30884
하였으며	-8.31067
▁피	-8.31184
청	-8.3129
▁C	-8.31496
했으며	-8.31527
▁즉	-8.31558
초	-8.31642
에도	-8.31751
집	-8.31834
민	-8.31841
월에	-8.32045
급	-8.32148
▁인해	-8.32257
▁독일	-8.32503
5	-8.32695
▁받았다	-8.32756
▁명	-8.3283
▁경	-8.33321
▁아니라	-8.33955
면서	-8.34002
▁있던	-8.34026
▁재	-8.34053
▁매우	-8.34056
승	-8.34094
▁2014	-8.34222
▁서울	-8.3446
S	-8.34681
▁위	-8.34858
▁국가	-8.35366
반	-8.35652
▁단	-8.35892
▁파	-8.36115
▁카	-8.36133
▁영국	-8.36248
▁없다	-8.36644
▁라	-8.37053
▁남	-8.37408
▁이에	-8.38232
▁M	-8.38414
생	-8.38712
▁2013	-8.38738
남	-8.38782
린	-8.39089
▁어	-8.39342
병	-8.3951
▁가지고	-8.39606
두	-8.39906
▁코	-8.40072
배	-8.40195
”	-8.40764
▁있어	-8.40854
D	-8.40921
▁국제	-8.40988
▁일본의	-8.41004
그	-8.41099
▁않았다	-8.41339
운	-8.41451
▁불	-8.41514
될	-8.4154
▁25	-8.42425
▁게임	-8.42674
더	-8.43055
▁않고	-8.43286
▁2006	-8.43408
K	-8.43464
했던	-8.43891
▁결국	-8.43905
▁없는	-8.4417
▁많이	-8.44304
창	-8.44743
6	-8.45157
발	-8.45457
▁스	-8.46004
▁F	-8.46179
이라	-8.46266
▁2015	-8.46875
테	-8.47312
▁삼	-8.47382
▁한편	-8.47485
▁이어	-8.47486
▁공	-8.47695
▁왕	-8.47696
질	-8.48218
각	-8.48358
물	-8.48419
▁영	-8.4863
류	-8.48674
점	-8.48828
▁21	-8.49183
▁로	-8.49387
▁도시	-8.49505
▁타	-8.49641
▁포	-8.49776
년대	-8.49963
광	-8.49982
령	-8.50105
▁외	-8.50175
")	-8.50406
▁음악	-8.50439
▁백	-8.51368
봉	-8.51477
▁박	-8.51505
▁연	-8.51576
▁배	-8.51913
터	-8.51951
▁연구	-8.51967
▁간	-8.51972
일부터	-8.52455
▁유럽	-8.52969
내	-8.53164
▁가운데	-8.53177
금	-8.53412
▁본	-8.53527
▁24	-8.53592
▁주요	-8.54223
▁2016	-8.5424
하기도	-8.54355
▁번	-8.55008
림	-8.5526
▁기준	-8.55308
명의	-8.55505
온	-8.55665
음	-8.55681
량	-8.55687
▁P	-8.55734
▁로마	-8.56111
목	-8.56136
심	-8.56249
▁이상	-8.56354
▁발	-8.564
▁22	-8.56485
▁문	-8.56524
▁방송	-8.57239
▁따라서	-8.57279
판	-8.57398
▁23	-8.57524
백	-8.57605
▁들어	-8.57804
▁다양한	-8.57811
▁만	-8.57815
되었으며	-8.58348
순	-8.58528
메	-8.58652
T	-8.58761
등	-8.58826
속	-8.58886
▁대학	-8.5891
▁올림픽	-8.59117
항	-8.59153
감	-8.5922
▁수도	-8.59669
론	-8.5973
복	-8.59959
▁인	-8.6019
▁전쟁	-8.60217
랑	-8.60318
M	-8.6063
▁2005	-8.60755
G	-8.60833
▁이름을	-8.61319
▁D	-8.61349
▁계속	-8.61459
브	-8.61533
▁러시아	-8.6158
▁네	-8.61666
되지	-8.61787
행	-8.61808
▁거의	-8.62027
▁여	-8.62047
▁영향을	-8.62241
▁2000	-8.62437
▁매	-8.62446
▁방	-8.62475
태	-8.62524
위를	-8.62539
▁조직	-8.62587
P	-8.62673
▁높은	-8.629
주의	-8.63326
▁고려	-8.63797
▁청	-8.6386
▁인구는	-8.63863
▁난	-8.63922
▁T	-8.64038
▁G	-8.6404
설	-8.6406
▁경기	-8.64214
에서도	-8.64371
으로부터	-8.64409
츠	-8.64414
▁작은	-8.64522
▁R	-8.64704
F	-8.64893
였던	-8.64993
▁선수	-8.65218
▁지방	-8.65309
▁이탈리아	-8.65476
▁28	-8.65478
▁처음	-8.65571
▁심	-8.65831
▁2004	-8.65918
희	-8.66071
예	-8.66092
하면	-8.66124
하다	-8.66899
쿠	-8.67009
▁말한다	-8.67201
▁27	-8.67259
케	-8.67534
▁26	-8.67602
직	-8.67608
▁of	-8.67609
▁독립	-8.67671
▁않은	-8.67847
▁사회	-8.67982
▁프로	-8.68002
7	-8.68183
▁100	-8.68228
▁아들	-8.68304
암	-8.6845
▁날	-8.68711
으로서	-8.68769
▁개	-8.68824
▁2017	-8.68828
하던	-8.68876
곡	-8.68955
▁있는데	-8.68955
▁따르면	-8.69032
▁알려져	-8.69046
▁뜻은	-8.69119
처럼	-8.6984
버	-8.70027
)·	-8.70068
▁경제	-8.70331
번째	-8.70541
▁되는	-8.70589
▁후에	-8.70681
▁가지	-8.70743
e	-8.7079
불	-8.70962
덕	-8.71156
▁교육	-8.71346
▁여성	-8.71406
▁역시	-8.71453
▁크게	-8.71464
▁하여	-8.71777
▁최	-8.7196
저	-8.72245
▁종	-8.7228
▁차	-8.72343
베	-8.72352
엔	-8.72417
▁E	-8.72509
8	-8.72608
▁송	-8.72738
t	-8.72773
근	-8.72908
살	-8.72929
▁사용	-8.72946
들과	-8.73017
▁중요한	-8.7303
▁금	-8.73036
본	-8.734
려	-8.73615
▁열	-8.73831
했지만	-8.73884
억	-8.73903
지만	-8.74467
▁그가	-8.74476
y	-8.74548
n	-8.74658
▁받아	-8.74687
▁황	-8.74886
▁개발	-8.75083
▁않는다	-8.75134
▁관한	-8.75373
▁서로	-8.75495
▁H	-8.76216
▁임	-8.76263
▁적	-8.76281
▁속	-8.76403
▁레	-8.76571
달	-8.76815
▁거쳐	-8.76905
기를	-8.77195
▁않는	-8.77249
▁열린	-8.77423
▁FC	-8.77451
절	-8.77529
▁각각	-8.77598
▁직접	-8.77613
▁예	-8.77875
철	-8.77918
환	-8.78178
▁2018	-8.78296
▁2002	-8.78413
▁29	-8.78556
L	-8.78764
▁새	-8.78791
하였으나	-8.79007
▁몇	-8.79185
일까지	-8.79233
와의	-8.79364
▁사이에	-8.7937
▁시작했다	-8.79816
평	-8.80325
탄	-8.80435
▁동시에	-8.80462
▁기술	-8.80604
매	-8.8075
해서	-8.80807
("	-8.80819
하자	-8.80961
투	-8.80965
되면서	-8.81015
▁화	-8.81117
성을	-8.81394
▁경기도	-8.81477
▁분	-8.81506
기도	-8.81621
씨	-8.81742
R	-8.81751
었다	-8.81866
통	-8.82068
▁천	-8.82587
▁가진	-8.82665
약	-8.8284
▁달	-8.83139
▁윤	-8.83141
▁여자	-8.83168
해야	-8.83187
으며	-8.83305
▁W	-8.83326
▁드라마	-8.83363
▁2003	-8.83434
▁북	-8.83491
임	-8.83494
▁달리	-8.83692
▁어떤	-8.838
▁군사	-8.83802
건	-8.83819
▁대전	-8.8395
▁처음으로	-8.8421
▁치	-8.84219
▁아닌	-8.8435
층	-8.84654
▁시대	-8.84656
▁마지막	-8.84685
극	-8.84812
▁의한	-8.84822
준	-8.84883
H	-8.85048
했으나	-8.85555
▁베	-8.85582
지는	-8.85712
▁철도	-8.8581
족	-8.85884
▁보고	-8.85982
▁대통령	-8.86058
▁최초의	-8.863
▁토	-8.8642
V	-8.86637
난	-8.86738
▁중앙	-8.86777
▁존	-8.86867
金	-8.86871
]	-8.87082
▁J	-8.87084
▁키	-8.87085
▁역할을	-8.87118
▁최고	-8.87276
19	-8.87301
▁「	-8.87556
▁저	-8.87718
大	-8.88005
▁결과	-8.88234
E	-8.88299
▁보통	-8.88335
▁물	-8.88476
▁자유	-8.88687
▁홍	-8.88738
▁운영	-8.88776
▁시리즈	-8.89075
」	-8.89205
▁전투	-8.89218
박	-8.89233
말	-8.89261
세의	-8.89368
山	-8.89549
▁용	-8.89773
▁생산	-8.8979
이었던	-8.89979
10	-8.90039
▁팀	-8.90078
▁정치	-8.9011
표	-8.90231
▁:	-8.90314
너	-8.90324
▁병	-8.90356
명이	-8.90573
9	-8.90675
▁교	-8.90747
▁되고	-8.90802
▁기록	-8.91028
W	-8.91117
▁행정	-8.91186
처	-8.91253
악	-8.91273
▁루	-8.91306
길	-8.91313
▁31	-8.91395
N	-8.91628
열	-8.91765
증	-8.91842
▁국민	-8.91903
▁있을	-8.92061
▁앨범	-8.9211
▁대신	-8.92305
▁1990	-8.92382
▁제작	-8.92672
▁음반	-8.92752
▁N	-8.93412
▁입	-8.9366
거나	-8.9375
i	-8.93791
▁활동	-8.93818
▁혹은	-8.93883
~	-8.9399
▁실	-8.94176
▁위하여	-8.94194
▁채	-8.94309
▁요	-8.9456
▁기원전	-8.9458
작	-8.94658
초등학교	-8.94764
▁속하는	-8.94797
a	-8.94989
색	-8.95168
시켰다	-8.95208
▁중심으로	-8.95221
▁하며	-8.95259
▁이것은	-8.95444
▁현대	-8.95488
▁온	-8.95488
▁관리	-8.95796
이기도	-8.95815
송	-8.95841
▁이때	-8.95875
▁이미	-8.96106
▁건설	-8.96201
▁야	-8.96557
추	-8.96609
변	-8.96643
▁공격	-8.96774
▁V	-8.96857
슈	-8.96867
▁판	-8.97446
▁문화	-8.9745
▁감독	-8.97549
▁지원	-8.97562
는데	-8.97628
▁일반적으로	-8.97679
▁변	-8.97764
▁대회	-8.97906
커	-8.98124
▁정도	-8.98138
상을	-8.9814
▁자연	-8.98206
업	-8.98506
▁개의	-8.98596
됐다	-8.9863
▁2001	-8.98659
▁될	-8.99072
李	-8.99178
래	-8.99299
▁L	-8.99425
▁우승	-8.99435
▁섬	-8.99467
▁받은	-8.99479
▁국	-8.9968
호로	-8.99768
▁경기에서	-8.99939
▁봉	-9.00005
▁받고	-9.00037
▁그녀는	-9.0035
▁만든	-9.00366
빈	-9.00777
▁바로	-9.00877
함	-9.00997
▁되었고	-9.01244
▁허	-9.0141
▁없이	-9.01445
▁시작	-9.01472
▁교황	-9.01547
▁컴퓨터	-9.01587
▁아버지	-9.01628
▁애	-9.0168
▁광	-9.01704
▁법	-9.01705
▁석	-9.01778
▁배우이다	-9.01786
▁겸	-9.018
락	-9.01849
▁하나	-9.02243
▁그리스	-9.02314
▁있다고	-9.02514
▁공식	-9.02596
대학	-9.02736
▁the	-9.0277
향	-9.0302
er	-9.03187
▁50	-9.03227
ing	-9.03434
력	-9.03736
충	-9.03817
▁발매	-9.03847
대학교	-9.03988
스트	-9.04033
▁활동을	-9.04049
▁때문이다	-9.04391
자가	-9.04412
▁태어났다	-9.0444
언	-9.04735
▁줄	-9.04775
▁소속	-9.04979
▁기준으로	-9.05062
▁관련	-9.05184
al	-9.0546
▁야구	-9.05865
▁진행	-9.06282
풍	-9.06414
립	-9.0668
시간	-9.06764
▁전체	-9.0699
▁디	-9.07034
골	-9.07233
▁서울특별시	-9.07243
▁하나이다	-9.07316
▁일반	-9.07364
▁권	-9.07369
편	-9.07394
하거나	-9.07584
▁지정되었다	-9.0776
▁두고	-9.07808
▁U	-9.07924
▁손	-9.07995
▁편	-9.08064
이란	-9.08086
▁남자	-9.08242
▁1980	-9.08308
▁별	-9.08361
하는데	-9.08404
▁TV	-9.08425
▁구성	-9.0848
손	-9.08625
▁이름은	-9.08772
▁자신이	-9.08789
▁정부	-9.08872
▁1999	-9.08946
▁싱글	-9.08947
▁배우	-9.08968
품	-9.08994
I	-9.09046
합	-9.09062
▁순	-9.09242
▁이런	-9.0925
삼	-9.09326
▁그를	-9.09365
▁I	-9.09438
▁원래	-9.09553
훈	-9.09601
▁생활	-9.09679
▁초기	-9.09766
담	-9.09968
링	-9.10031
져	-9.1028
▁있지만	-9.10291
있다	-9.10317
▁사상	-9.10336
▁1998	-9.10484
o	-9.1051
▁공연	-9.10588
▁전기	-9.10732
규	-9.10736
▁대부분의	-9.10789
▁존재	-9.10838
들에게	-9.11021
▁결정	-9.11111
▁최초로	-9.11375
망	-9.11405
O	-9.11566
록	-9.11682
▁창	-9.11823
리그	-9.11892
외	-9.12089
▁FIFA	-9.12105
!	-9.12121
h	-9.12202
▁·	-9.12311
출	-9.12359
▁기독교	-9.12367
▁인구	-9.12391
숙	-9.12527
▁스페인	-9.12587
▁하다	-9.12676
▁공화국	-9.12677
▁자기	-9.12711
▁메	-9.13026
▁부산	-9.13159
▁있어서	-9.133
▁그룹	-9.13309
▁폴란드	-9.13377
필	-9.13409
▁이전	-9.13478
▁등으로	-9.13562
▁해당	-9.13631
▁데뷔	-9.13632
▁지역에	-9.13673
▁애니메이션	-9.13676
▁아이	-9.13878
장을	-9.13888
범	-9.13895
▁있었던	-9.13896
▁대하여	-9.14015
중학교	-9.14107
▁등에	-9.14207
▁고대	-9.14273
▁이상의	-9.14277
cm	-9.14299
20	-9.14359
별	-9.14425
▁감	-9.14516
▁건	-9.14574
▁살	-9.14663
▁드	-9.1472
l	-9.14786
녀	-9.14798
▁노래	-9.14847
▁걸쳐	-9.14859
▁만들어	-9.14939
▁사건	-9.15104
▁인도	-9.15115
▁기타	-9.15157
▁민	-9.1518
in	-9.15203
▁목	-9.15439
하지만	-9.15757
▁0	-9.15757
퍼	-9.15854
▁발표	-9.16095
▁없었다	-9.16199
▁들	-9.16212
명을	-9.16233
▁대부분	-9.16234
▁정보	-9.16289
▁잉글랜드	-9.16399
▁이름으로	-9.16872
스는	-9.16891
▁추가	-9.16997
▁계획	-9.17018
▁보인다	-9.17075
▁대학교	-9.17075
▁전자	-9.17243
스타	-9.17401
▁연방	-9.17569
▁계	-9.1758
▁어느	-9.1767
▁반대	-9.17763
▁어머니	-9.17818
▁전국	-9.17889
en	-9.17918
선의	-9.18018
▁관	-9.1802
▁도쿄	-9.18038
▁이유로	-9.18045
되며	-9.18157
함으로써	-9.18183
▁면적은	-9.18222
▁이동	-9.18276
▁분류	-9.1833
▁공립	-9.18332
결	-9.1842
일에는	-9.18452
리아	-9.18483
▁그들의	-9.18485
▁좋은	-9.18713
고등학교	-9.18741
▁1997	-9.18743
▁곡	-9.18792
격	-9.18867
슨	-9.18925
런	-9.18981
▁시간	-9.19044
▁사람이	-9.19051
]]	-9.19212
▁거	-9.19457
▁발전	-9.19543
▁태	-9.19715
▁선수이다	-9.19811
▁팔	-9.20012
▁패	-9.20056
▁있게	-9.20302
▁기업	-9.20312
▁최대	-9.20336
》(	-9.20367
▁형	-9.20377
▁나라	-9.2046
▁점	-9.20464
독	-9.20466
막	-9.20487
▁이용	-9.20495
0	-9.20633
년간	-9.20738
위원회	-9.20943
북	-9.20946
축	-9.20964
▁승강장	-9.21094
▁더욱	-9.21177
세는	-9.21212
▁1995	-9.21224
▁추	-9.21245
▁쿠	-9.21443
▁출신	-9.21464
읍	-9.2147
ed	-9.21513
▁회	-9.2172
▁발생	-9.21926
▁민족	-9.22002
▁곧	-9.22027
▁월드컵	-9.22035
▁선거	-9.22126
▁40	-9.2215
▁가리킨다	-9.22166
▁시스템	-9.22167
▁1996	-9.22221
▁예를	-9.22238
총	-9.22279
렌	-9.22291
▁기간	-9.22312
누	-9.22331
▁황제	-9.22423
팀	-9.22731
▁변경	-9.22735
g	-9.22836
▁음	-9.23005
례	-9.23259
애	-9.23387
▁인기	-9.23393
▁학교	-9.23438
권을	-9.23456
▁철	-9.23464
입	-9.23519
▁소련	-9.23876
▁네덜란드	-9.2393
이지만	-9.23961
세가	-9.23962
▁[[	-9.23964
돌	-9.23995
▁1994	-9.24094
▁이들은	-9.24105
시켜	-9.24195
▁표현	-9.24412
▁작품	-9.24482
했는데	-9.24483
졌다	-9.24516
mm	-9.25083
▁향	-9.25365
▁생각	-9.25367
황	-9.25461
채	-9.2553
칸	-9.25589
▁사이	-9.25631
▁체	-9.25732
윤	-9.25822
▁운동	-9.25826
▁환경	-9.25912
▁대표	-9.25936
▁산업	-9.25971
▁현재는	-9.25981
▁사용하는	-9.26169
▁가수	-9.26226
▁1992	-9.26365
▁하지	-9.26431
있는	-9.26462
▁이들	-9.26476
b	-9.26618
▁사람	-9.26669
시키는	-9.26762
f	-9.26846
▁육군	-9.26978
▁1970	-9.27005
▁준	-9.27085
▁공동	-9.27095
▁이와	-9.27156
되기	-9.27223
▁아시아	-9.27356
▁길	-9.27368
▁하나로	-9.27385
▁맡았다	-9.27551
▁조사	-9.27709
_1	-9.27779
▁전문	-9.27785
▁모습을	-9.27822
18	-9.27851
▁불구하고	-9.28107
▁것이라고	-9.28185
익	-9.28265
헌	-9.28269
갈	-9.28274
us	-9.28337
▁말했다	-9.28498
▁이야기	-9.28567
턴	-9.28648
▁통	-9.28716
페	-9.28738
d	-9.28827
▁유지	-9.28838
▁못했다	-9.28877
군의	-9.28954
▁참	-9.28992
▁하나의	-9.28997
c	-9.29023
▁그들은	-9.29047
문화	-9.29094
▁프로그램	-9.2914
▁등과	-9.2918
성이	-9.29195
패	-9.29278
▁클럽	-9.29298
▁연결	-9.29311
▁페	-9.29564
The	-9.29592
▁친	-9.29642
▁밝혔다	-9.29745
▁많다	-9.2979
▁과학	-9.2999
▁식	-9.30108
▁면	-9.3014
▁행	-9.30417
지를	-9.3045
文	-9.30478
▁우주	-9.30481
▁설립	-9.30492
▁확장	-9.30615
▁변화	-9.30638
▁이듬해	-9.30645
▁알려진	-9.30731
▁스타	-9.30856
탈	-9.30906
▁전에	-9.31042
▁지역의	-9.31053
▁제국	-9.31096
▁집	-9.31126
머	-9.31131
▁연속	-9.31152
월부터	-9.31209
궁	-9.31328
30	-9.31351
울	-9.31395
11	-9.31403
▁1991	-9.31529
王	-9.31534
▁국내	-9.3168
술	-9.31776
12	-9.31835
▁텔레비전	-9.31849
▁결혼	-9.31898
▁투	-9.31964
찬	-9.32124
▁널리	-9.3214
▁않다	-9.32229
▁종교	-9.32246
▁빈	-9.32371
▁평	-9.32442
X	-9.32453
▁비해	-9.32473
▁것에	-9.32516
마다	-9.32676
▁영국의	-9.32714
대로	-9.32784
▁서비스	-9.32867
▁주의	-9.33141
▁자주	-9.33156
촌	-9.33217
▁표준	-9.3331
들에	-9.33312
▁1988	-9.33559
▁인간	-9.33563
▁1960	-9.33608
▁갖고	-9.33714
월에는	-9.33789
▁문제	-9.33791
▁영화이다	-9.3387
▁선발	-9.33912
▁시절	-9.33976
▁쇼	-9.33994
▁1993	-9.34009
경기	-9.34011
▁성공	-9.34064
새	-9.34504
▁명의	-9.34586
▁평가	-9.34691
때	-9.34731
▁목적으로	-9.34791
▁긴	-9.34844
▁그녀의	-9.34911
▁귀	-9.34964
▁평균	-9.35052
▁관계	-9.35091
▁티	-9.35145
나무	-9.35176
▁연합	-9.35177
▁인터넷	-9.35197
▁유명한	-9.35335
▁아래	-9.35353
회의	-9.35355
▁포함한	-9.35394
▁완전히	-9.35441
자를	-9.3545
▁O	-9.3549
▁포함	-9.35584
옥	-9.35591
▁소설	-9.35602
p	-9.35603
▁사업	-9.35702
▁뉴욕	-9.3579
is	-9.35835
▁비롯한	-9.35977
▁발견	-9.36042
▁지구	-9.36113
료	-9.3612
▁부분	-9.36208
▁설치	-9.36217
▁그대로	-9.36251
▁남부	-9.36263
쇼	-9.36271
▁위에	-9.36311
▁악	-9.36404
샤	-9.36406
하도록	-9.3644
▁사실	-9.36534
▁생	-9.36562
▁주도	-9.36579
▁X	-9.36599
학교	-9.36669
개월	-9.36705
▁수상	-9.36728
J	-9.36746
맨	-9.36786
▁사이의	-9.37061
▁정규	-9.37073
▁딸	-9.37083
▁개인	-9.37084
▁못	-9.37108
▁통합	-9.37139
견	-9.37164
▁돌	-9.37175
자로	-9.37298
리에	-9.37313
홍	-9.37417
▁독일의	-9.37687
▁공개	-9.37818
▁때까지	-9.37855
▁존재한다	-9.37918
좌	-9.37941
쓰	-9.37979
▁판매	-9.3817
위에	-9.38198
날	-9.38469
▁상대	-9.38494
▁역사	-9.3856
도록	-9.38638
▁있으나	-9.38654
u	-9.38718
▁골	-9.38801
▁베트남	-9.38836
▁있도록	-9.3894
國	-9.39167
▁여기서	-9.39237
▁km	-9.39297
▁정도로	-9.39321
▁선택	-9.39326
사를	-9.39327
기는	-9.39383
▁도로	-9.39409
▁먼저	-9.39475
▁불리는	-9.39481
on	-9.39574
▁것이었다	-9.39651
먼	-9.3966
(18	-9.39687
▁보호	-9.39884
▁보내	-9.39913
다가	-9.39953
했을	-9.39977
▁증가	-9.40193
▁프랑스의	-9.40194
▁슈	-9.40197
▁밴드	-9.40278
▁KBS	-9.40492
▁함	-9.40554
▁1989	-9.40638
▁중심	-9.40699
인데	-9.40749
or	-9.40795
▁라디오	-9.40797
▁남아	-9.40805
▁마을	-9.40892
▁사람들이	-9.40973
▁하계	-9.4103
▁지배	-9.41081
▁강화	-9.4114
▁차량	-9.41154
▁과거	-9.41222
▁중에	-9.41271
▁캐나다	-9.41291
되었으나	-9.41391
▁막	-9.4153
▁절	-9.41627
▁현재의	-9.4173
15	-9.4178
볼	-9.41842
방송	-9.41963
▁대구	-9.42089
귀	-9.421
▁해군	-9.42126
▁우승을	-9.4215
▁영어	-9.4217
야마	-9.42249
▁와	-9.42255
▁있기	-9.42298
▁정의	-9.42447
80	-9.42741
▁누	-9.42784
▁과정에서	-9.42825
김	-9.42835
▁극	-9.43092
▁것과	-9.43143
▁의하여	-9.43352
U	-9.4341
▁히	-9.435
▁의하면	-9.43505
▁연기	-9.43709
▁맥	-9.44064
▁출전	-9.44159
밀	-9.44241
▁세포	-9.44378
Y	-9.44381
하였는데	-9.44385
r	-9.44415
▁풍	-9.44596
▁환	-9.44624
▁예술	-9.44747
▁법률	-9.44948
▁경우가	-9.44985
▁사망	-9.45081
▁형성	-9.45158
▁밀	-9.4519
▁옛	-9.45229
▁비슷한	-9.4526
▁도입	-9.45357
▁문학	-9.45442
워	-9.45498
le	-9.45551
▁건물	-9.45657
▁혁명	-9.45754
▁암	-9.45761
▁경상북도	-9.45878
▁자동차	-9.45895
▁갈	-9.45912
▁지냈다	-9.46113
50	-9.46115
▁UEFA	-9.46129
▁스포츠	-9.46129
흥	-9.46156
▁인정	-9.46297
▁북부	-9.46406
▁벌	-9.46422
교육	-9.46443
17	-9.46476
▁계약	-9.46504
40	-9.46512
▁쓰	-9.46657
기가	-9.4666
▁출연	-9.46682
▁분석	-9.46745
▁집단	-9.46758
▁이름	-9.46876
▁사용한다	-9.4688
▁책	-9.46943
▁최종	-9.47122
)'	-9.47145
군은	-9.47245
▁대표적인	-9.47274
▁연주	-9.47284
▁주장	-9.47417
▁선수로	-9.47449
[	-9.47456
▁가능하다	-9.47456
▁부족	-9.47501
▁기본	-9.47505
▁이름이	-9.47524
만이	-9.47566
완	-9.47726
▁항공	-9.47739
자의	-9.4775
▁헌법	-9.47755
▁초대	-9.4779
16	-9.47794
▁연극	-9.47851
▁선수권	-9.47853
▁제국의	-9.47894
▁진출	-9.47897
▁시기	-9.4804
릴	-9.48049
▁수많은	-9.48139
스터	-9.48187
▁실제	-9.4836
▁기능	-9.48369
▁남성	-9.48389
든	-9.48411
었고	-9.48432
▁교수	-9.48457
▁걸	-9.48463
▁버	-9.48465
▁칼	-9.4849
동에	-9.48732
▁처리	-9.48743
▁통일	-9.48812
▁게	-9.48927
▁200	-9.49028
▁함수	-9.49037
▁사이에서	-9.49101
▁시에	-9.49154
▁스스로	-9.49244
▁설	-9.49324
▁1945	-9.49384
▁그린	-9.49446
▁동물	-9.49498
▁아프리카	-9.49501
▁1987	-9.49627
▁높이	-9.49704
▁개최	-9.49723
▁동부	-9.49743
름	-9.49769
▁시작하였다	-9.49896
사가	-9.49959
친	-9.49983
스의	-9.50041
▁이렇게	-9.50074
▁끝에	-9.50102
룡	-9.50146
▁형태로	-9.50197
▁1986	-9.50377
▁상대로	-9.50391
▁곳에	-9.5056
▁공작	-9.50736
▁지명	-9.50747
k	-9.50768
▁구성되어	-9.50828
▁운행	-9.50878
▁위해서	-9.5092
▁언어	-9.51033
자는	-9.51038
▁시도	-9.5107
▁샤	-9.51089
13	-9.51223
三	-9.51241
▁구조	-9.51283
60	-9.51407
▁관측	-9.51488
▁과	-9.5158
▁추진	-9.51591
▁부른다	-9.51633
▁서부	-9.51741
▁있지	-9.51793
센	-9.51951
▁해석	-9.51992
▁1950	-9.52256
▁쓴	-9.52684
▁국가대표팀	-9.5276
▁테	-9.52823
道	-9.52957
▁수행	-9.52977
▁오스트레일리아	-9.5298
염	-9.53008
14	-9.53021
南	-9.53054
▁지역에서	-9.53056
▁요구	-9.53131
▁국립	-9.53189
▁신라	-9.53203
▁인식	-9.53282
▁사랑	-9.53306
▁푸	-9.53323
되기도	-9.53428
▁단체	-9.53574
▁등장	-9.53649
▁마찬가지로	-9.53822
▁도시로	-9.53838
州	-9.53921
련	-9.53935
▁죽	-9.53957
▁만에	-9.54013
▁보다	-9.54119
가지	-9.54172
▁폴	-9.54187
명이다	-9.54279
▁기자	-9.54419
▁승리	-9.54454
자리	-9.54505
묘	-9.54557
▁질	-9.54566
▁것도	-9.54749
▁특정	-9.54806
▁구단	-9.54828
하라	-9.54911
es	-9.54939
▁나머지	-9.54957
▁있었고	-9.54998
▁태양	-9.5501
톤	-9.5503
▁통치	-9.55072
TV	-9.5517
▁지난	-9.55332
▁식민지	-9.55464
▁각종	-9.55481
▁행성	-9.55541
▁프리	-9.55645
▁중에서	-9.55645
▁올	-9.55726
▁성장	-9.55756
알	-9.55783
▁설계	-9.55829
▁만화	-9.55903
▁조각	-9.55937
▁육	-9.55945
▁몇몇	-9.56013
▁복	-9.56106
▁인천	-9.56116
▁모델	-9.56121
▁밤	-9.56137
택	-9.56335
東	-9.56406
▁공간	-9.56415
▁전라남도	-9.56415
▁파괴	-9.56475
▁버스	-9.56533
만을	-9.56539
▁주변	-9.56587
▁1984	-9.56632
춘	-9.56636
▁에너지	-9.56653
▁아르	-9.56659
취	-9.56744
▁필	-9.57026
;	-9.57043
25	-9.57106
▁상태	-9.5711
▁사용할	-9.57129
▁참여	-9.57214
▁전통	-9.57222
▁작가	-9.57234
▁파리	-9.57351
▁1985	-9.57371
》()	-9.57381
▁이루어져	-9.57398
▁건축	-9.57425
▁못하고	-9.57426
x	-9.57443
기에	-9.57476
▁대해서는	-9.57541
▁기관	-9.57627
▁부인	-9.57632
子	-9.57665
▁불교	-9.57669
섬	-9.57678
협회	-9.57689
▁정리	-9.57709
허	-9.5773
람	-9.57838
▁커	-9.5786
安	-9.57934
흐	-9.57953
▁위치하고	-9.58069
▁칸	-9.58127
했다고	-9.58139
▁조선민주주의인민공화국	-9.58181
▁있다는	-9.58203
▁의미한다	-9.58227
▁관련된	-9.5828
▁다만	-9.58321
▁요리	-9.58335
z	-9.58397
스키	-9.58409
▁사용된다	-9.58489
城	-9.58489
▁뿐	-9.58552
▁소프트웨어	-9.58556
▁못한	-9.58663
▁편성	-9.58666
ur	-9.58713
-1	-9.58739
호선	-9.58875
▁때는	-9.59068
▁열차	-9.59137
▁공항	-9.59144
▁기록했다	-9.59145
하다가	-9.59222
▁떨어진	-9.59326
▁색	-9.59427
▁폐	-9.59509
▁근	-9.59645
▁한국의	-9.59694
▁가정	-9.59729
▁둘	-9.59752
70	-9.59754
시에	-9.59755
▁완	-9.59756
▁일을	-9.59825
▁니	-9.59903
블	-9.59938
시키고	-9.59953
팅	-9.59963
▁노선	-9.59993
▁목록	-9.60067
▁번역	-9.60086
▁실험	-9.60091
▁레이	-9.60168
하기로	-9.60293
션	-9.60293
빌	-9.6031
▁데이터	-9.60332
ro	-9.6043
▁프로젝트	-9.60465
▁록	-9.60492
▁나가	-9.60565
▁사고	-9.60574
▁더불어	-9.60587
▁문자	-9.60603
th	-9.60624
▁따른	-9.60806
른	-9.60821
▁비디오	-9.60826
▁우리	-9.60845
▁표	-9.60864
▁사진	-9.60907
하려	-9.60983
▁헤	-9.61015
▁배치	-9.6103
▁조정	-9.61078
군을	-9.61191
▁길이	-9.61214
▁옥	-9.61274
it	-9.61329
▁눈	-9.61352
▁오스트리아	-9.61379
▁표기	-9.61421
▁만들	-9.61565
ad	-9.61612
▁발사	-9.61718
▁신문	-9.61728
▁제도	-9.61785
▁지지	-9.61799
▁정당	-9.61856
▁통과	-9.61904
▁학	-9.61951
▁광주	-9.6198
▁떠나	-9.62033
▁60	-9.62052
▁덕	-9.62185
▁제품	-9.62238
혜	-9.62261
▁독	-9.62268
▁오후	-9.62308
▁지정	-9.6243
▁대상	-9.62438
릉	-9.62548
▁준비	-9.62661
▁경상남도	-9.62711
▁않아	-9.62769
책	-9.62843
▁왔다	-9.62861
▁항	-9.63
레스	-9.63152
▁브라질	-9.63152
▁확인	-9.63168
▁and	-9.63172
▁개혁	-9.6325
天	-9.63278
▁그해	-9.63314
▁접	-9.63341
▁일제	-9.63375
』	-9.63377
an	-9.63526
▁문제를	-9.63527
▁디자인	-9.63546
▁유일한	-9.63686
팔	-9.63708
▁학생	-9.63712
▁지하철	-9.63817
리는	-9.63923
균	-9.64104
▁디지털	-9.64178
대를	-9.64232
▁MBC	-9.64236
▁지도	-9.64245
▁강한	-9.64318
▁멕시코	-9.64326
냐	-9.64326
▁가능한	-9.6434
▁부여	-9.64341
人	-9.64421
▁『	-9.64448
▁폰	-9.64452
▁경우에는	-9.64523
▁행사	-9.64529
▁합	-9.64606
기로	-9.64628
라고도	-9.64672
▁중화인민공화국	-9.64721
▁경영	-9.64777
운동	-9.64821
▁이용하여	-9.64828
▁적용	-9.64885
▁아니다	-9.64961
▁제조	-9.64982
▁식물	-9.6506
▁마리	-9.65078
▁내부	-9.65101
90	-9.65122
▁제한	-9.65223
▁집합	-9.65298
▁제공	-9.65349
세를	-9.65349
▁교통	-9.65533
한다는	-9.6554
▁구조를	-9.65551
▁문제가	-9.65647
▁엘	-9.65776
▁정식	-9.65842
el	-9.65857
▁어린	-9.65886
리스	-9.659
▁울	-9.65911
▁감소	-9.65924
▁분리	-9.65931
法	-9.65951
▁되었으며	-9.65978
▁불린다	-9.65983
▁1982	-9.66104
▁졸업	-9.66132
▁나무	-9.66218
농	-9.66224
▁정책	-9.66267
력을	-9.66272
▁가까운	-9.6634
▁충청남도	-9.66396
되자	-9.66467
▁필요한	-9.66499
간의	-9.66505
센터	-9.66556
▁몸	-9.66607
▁새로	-9.66696
▁뒤에	-9.66725
장으로	-9.66755
▁평화	-9.66803
기관	-9.66917
▁만들었다	-9.66948
▁확대	-9.6702
▁국경	-9.67086
▁특별	-9.67113
칠	-9.67189
▁정부는	-9.67241
명으로	-9.6727
▁점령	-9.67289
中	-9.67329
▁하이	-9.67338
▁삼성	-9.67365
▁관계를	-9.6737
▁낮은	-9.67378
re	-9.6742
검	-9.67483
전에서	-9.67493
▁올랐다	-9.6755
▁1983	-9.67573
▁방어	-9.67611
▁교회	-9.67622
▁작업	-9.67659
장이	-9.67756
▁후보	-9.6779
▁m	-9.67836
ic	-9.67859
▁주었다	-9.67911
▁설정	-9.67965
▁안에	-9.67977
▁만들어진	-9.68019
▁촬영	-9.68085
w	-9.68224
▁캐릭터	-9.68262
》,	-9.6827
▁경기를	-9.68281
▁아직	-9.68299
자와	-9.68343
함을	-9.68356
▁런던	-9.68376
▁남쪽	-9.6846
▁회사	-9.68464
상의	-9.68508
명은	-9.68514
▁정치적	-9.68578
▁국회의원	-9.6858
▁시행	-9.68603
▁[	-9.68674
돈	-9.68785
▁말을	-9.68984
▁요시	-9.69058
▁경쟁	-9.69113
▁비판	-9.69115
▁핵	-9.69135
▁전투에서	-9.69304
였으며	-9.69409
▁스웨덴	-9.69412
▁팀의	-9.69491
곤	-9.69516
▁표시	-9.69528
▁바탕으로	-9.6954
▁해외	-9.69578
▁터키	-9.69689
▁출신의	-9.69701
▁강원도	-9.69707
위로	-9.69728
▁조성	-9.69734
쉬	-9.69748
▁개통	-9.6981
▁들어가	-9.69919
▁만나	-9.69935
▁실제로	-9.69944
침	-9.70015
▁처	-9.70024
▁앞	-9.70088
▁적이	-9.70092
움	-9.70119
군이	-9.70132
습	-9.70146
宗	-9.70174
21	-9.7018
갑	-9.70204
▁최고의	-9.70214
▁가리키는	-9.70263
▁철도역	-9.70362
▁뿐만	-9.70415
▁기록을	-9.70434
▁홈	-9.70435
스크	-9.70492
▁참가	-9.70534
줄	-9.70572
푸	-9.70603
▁사실을	-9.70701
▁고등학교	-9.70702
as	-9.70891
▁돈	-9.70892
▁작전	-9.70979
▁물론	-9.71006
았다	-9.71047
▁보도	-9.71205
▁발달	-9.71233
벌	-9.71251
24	-9.71264
영화	-9.7127
▁기존의	-9.71277
▁의사	-9.71293
▁외부	-9.71306
튼	-9.71314
쳐	-9.71335
임을	-9.71364
월까지	-9.71386
조선	-9.71541
▁반란	-9.71568
▁시민	-9.71583
▁제외한	-9.71652
▁지역을	-9.71703
효	-9.71738
▁아일랜드	-9.71858
▁나이	-9.71882
음악	-9.71898
▁시대의	-9.71902
ar	-9.7194
▁중간	-9.72005
▁머리	-9.72041
▁나중에	-9.72081
척	-9.72083
▁본래	-9.72095
이라고도	-9.72107
시킨	-9.72127
▁멤버	-9.72137
氏	-9.72171
元	-9.72221
▁일어난	-9.72241
▁만약	-9.72286
▁작	-9.72291
▁de	-9.72296
씩	-9.72339
▁사람은	-9.72353
▁/	-9.72432
긴	-9.72477
▁동생	-9.72512
▁잡지	-9.72559
▁위치해	-9.7259
▁교체	-9.72595
▁일이	-9.72614
▁충돌	-9.72643
▁지휘	-9.72678
엘	-9.72689
혼	-9.72727
▁조지	-9.72732
▁천황	-9.72735
겐	-9.72757
▁그림	-9.72783
▁지적	-9.72833
▁행동	-9.72863
▁일종이다	-9.72928
▁있었지만	-9.72951
▁아니	-9.7299
▁중국의	-9.73009
▁위치	-9.73031
▁의해서	-9.73076
▁의미	-9.73109
▁망	-9.73125
존	-9.73157
▁기존	-9.73161
▁밖에	-9.73207
48	-9.73228
▁반면	-9.73254
학년	-9.73292
▁하기	-9.73335
▁언론	-9.73336
▁실행	-9.7344
寺	-9.73485
▁1981	-9.735
▁헝가리	-9.73509
▁1979	-9.73516
틴	-9.73556
▁미국에서	-9.73594
▁공사	-9.73671
되었는데	-9.73755
▁항상	-9.73787
걸	-9.73837
▁수정	-9.73856
세기에	-9.73865
년대에	-9.73873
▁통하여	-9.73929
▁사용되는	-9.73966
▁간의	-9.73969
正	-9.74146
▁지하	-9.74148
▁이적	-9.74322
▁승	-9.74395
▁풀	-9.74583
▁땅	-9.74603
▁녹음	-9.74651
▁직	-9.74716
정부	-9.74756
▁생활을	-9.74968
▁설명	-9.74984
▁터	-9.75019
▁사람을	-9.7503
▁뉴스	-9.75032
▁1972	-9.75054
었으며	-9.75165
▁경찰	-9.75235
▁임명	-9.7527
▁월드	-9.75288
▁기후	-9.75391
일본	-9.75419
▁의원	-9.75429
▁만드는	-9.7543
▁제임스	-9.75435
▁결합	-9.75513
▁스위스	-9.7561
산업	-9.75622
점을	-9.75627
▁부문	-9.75696
▁작곡	-9.75728
▁마리아	-9.75759
▁전환	-9.75792
하려는	-9.75798
▁북한	-9.75817
▁판단	-9.75849
▁The	-9.75871
▁말이다	-9.75919
▁본관은	-9.75963
▁위의	-9.75965
▁시기에	-9.76007
▁계산	-9.76035
관리	-9.76209
사의	-9.76301
대의	-9.76313
사업	-9.76352
▁언급	-9.76387
컵	-9.76469
▁갖춘	-9.76494
▁연장	-9.76532
▁시험	-9.76624
▁개선	-9.7672
▁활약	-9.76726
였고	-9.76784
▁전개	-9.76812
▁보면	-9.76906
응	-9.76923
지로	-9.76942
▁오브	-9.76973
▁타이	-9.7699
플	-9.77005
▁소개	-9.77005
▁뒤를	-9.77018
▁범	-9.77032
▁수립	-9.77091
니아	-9.77105
▁부대	-9.77143
▁종료	-9.77202
▁설립된	-9.77232
▁콜	-9.77257
▁종합	-9.77338
▁뉴	-9.77359
-19	-9.77427
화를	-9.77446
27	-9.77498
▁동계	-9.77501
▁시작되었다	-9.77558
ia	-9.77592
▁붕괴	-9.77645
▁일반적인	-9.77646
▁공급	-9.7769
▁기능을	-9.77726
▁인한	-9.77761
▁완성	-9.77779
?	-9.7778
단체	-9.77781
▁1973	-9.77921
▁정부의	-9.77925
▁쉽게	-9.77953
클	-9.77953
▁웹	-9.77991
▁계승	-9.77991
▁파일	-9.7802
▁선정	-9.78074
▁자리를	-9.7809
▁무장	-9.78134
▁탈	-9.78204
▁글	-9.78231
▁투수	-9.78353
들로	-9.78354
▁노력	-9.78382
▁핀란드	-9.7841
▁경우도	-9.78418
▁속에	-9.78466
▁사회주의	-9.78476
07	-9.78486
▁인수	-9.78503
▁대회에서	-9.78532
▁방영	-9.78537
▁장치	-9.78573
▁전차	-9.78591
▁케	-9.78624
스와	-9.7866
▁능	-9.78702
제를	-9.78709
▁in	-9.78715
▁32	-9.78762
▁여전히	-9.78785
▁주는	-9.78806
▁인물	-9.78814
▁사용하여	-9.78843
▁관심을	-9.78862
▁급	-9.78864
▁양식	-9.78908
▁그래서	-9.78927
▁둔	-9.78928
버스	-9.78934
▁a	-9.79002
▁구분	-9.79004
▁규정	-9.79096
으로써	-9.79103
참	-9.79149
29	-9.79154
▁승격	-9.79178
26	-9.79222
▁가톨릭	-9.79239
▁나온	-9.79258
▁속에서	-9.79289
▁태어난	-9.79482
▁훈련	-9.79487
▁궤도	-9.79522
28	-9.79538
기술	-9.79578
▁엔	-9.79581
▁문서	-9.79626
▁후반	-9.79681
▁잡	-9.797
▁시장	-9.79799
▁낙	-9.79829
골을	-9.79897
▁동쪽	-9.79928
앙	-9.80061
▁금지	-9.80086
▁시의	-9.8012
▁초등학교이다	-9.80136
거리	-9.8024
틀	-9.80243
▁등에서	-9.80269
▁기계	-9.80272
▁조약	-9.80303
▁인민	-9.80378
▁내에서	-9.8044
▁계약을	-9.80486
▁떨어져	-9.80527
착	-9.80582
▁오사카	-9.80584
平	-9.80626
▁수학	-9.80707
수가	-9.80729
압	-9.80771
▁경험	-9.80827
▁뛰어난	-9.80829
▁대립	-9.80834
▁찾아	-9.80866
▁가는	-9.80989
▁침공	-9.8104
▁매년	-9.81098
되었지만	-9.8111
▁힘	-9.8115
▁검	-9.81225
로써	-9.81245
▁전달	-9.81253
하나	-9.81264
▁대체	-9.81283
으나	-9.81296
▁외에도	-9.81308
덴	-9.81316
▁1974	-9.81343
탑	-9.81391
▁센터	-9.81453
▁점차	-9.81548
▁내려	-9.81562
▁항성	-9.81574
했기	-9.8161
수를	-9.81616
▁뜻이	-9.81658
지역	-9.81672
장은	-9.81709
▁다이	-9.81806
▁발행	-9.81818
▁너무	-9.81826
▁b	-9.81901
▁수입	-9.82034
▁사용한	-9.82057
스가	-9.82089
올	-9.82104
닝	-9.82148
)》	-9.82189
▁취	-9.82275
▁방문	-9.8228
사회	-9.82308
▁가입	-9.82337
▁중단	-9.8235
▁폭	-9.82357
▁박사	-9.82362
지고	-9.82392
측	-9.82395
▁이해	-9.82422
川	-9.82428
▁활용	-9.82428
▁강력한	-9.82452
▁주장했다	-9.82463
▁무기	-9.82464
▁대해서	-9.82469
▁공격을	-9.82486
▁쓰인다	-9.82521
▁유명	-9.82526
▁승리를	-9.82578
▁친구	-9.82594
▁사실상	-9.82597
교회	-9.82625
▁실시	-9.82782
▁선언	-9.82845
▁받는	-9.83002
▁플레이	-9.83013
▁이끄는	-9.83024
▁필리핀	-9.83027
▁이루어진	-9.83052
▁옮겨	-9.83057
랄	-9.8311
육	-9.83148
▁500	-9.83165
-2	-9.83197
▁장관	-9.83223
▁때에는	-9.83223
▁채널	-9.83375
▁설치되어	-9.83394
▁사람들은	-9.83488
액	-9.835
▁1920	-9.83574
딩	-9.83608
나라	-9.83689
회사	-9.83849
▁다섯	-9.83867
公	-9.8392
▁윈도우	-9.83943
▁녹	-9.83958
▁필요	-9.8396
었던	-9.84081
▁위치한다	-9.84109
▁태평양	-9.84134
▁해방	-9.84156
▁발표했다	-9.84165
▁엔진	-9.8421
보다는	-9.84219
▁유리	-9.8422
탁	-9.84254
▁기대	-9.8435
▁저항	-9.84355
▁하자	-9.84377
00	-9.84399
▁시대에	-9.84444
글	-9.84447
▁본선	-9.84453
▁최근	-9.84552
▁젊은	-9.84599
▁선출	-9.84653
▁실패	-9.84661
▁출시	-9.84831
▁크	-9.84851
▁1978	-9.84852
선을	-9.84866
▁대응	-9.84879
▁세웠다	-9.84894
▁1971	-9.85001
▁죽은	-9.85029
um	-9.85059
▁류	-9.85077
▁은퇴	-9.8512
경제	-9.85134
랜드	-9.85159
▁정보를	-9.85214
▁보존	-9.853
▁농업	-9.85304
et	-9.85362
▁나서	-9.85421
몬	-9.85439
사로	-9.8547
▁형태	-9.85489
▁음력	-9.85512
▁이집트	-9.85536
事	-9.85607
▁농	-9.8562
▁대형	-9.85625
진다	-9.85641
▁1976	-9.85643
▁직후	-9.85783
돼	-9.85846
▁상호	-9.85855
▁메이저	-9.85972
▁영상	-9.85999
▁윌리엄	-9.86003
長	-9.86013
벽	-9.86064
▁임명되었다	-9.86171
▁내각	-9.86176
▁얼마	-9.86182
▁출생	-9.86191
▁구역	-9.8622
▁1968	-9.86222
▁등은	-9.86297
▁비교적	-9.86309
▁버전	-9.86337
▁이것이	-9.86396
젠	-9.86451
▁허용	-9.86532
▁하루	-9.86537
▁작용	-9.86543
▁유로	-9.86543
▁고구려	-9.86546
▁시설	-9.86583
▁묘	-9.86596
▁신경	-9.86671
▁이래	-9.86698
몽	-9.86733
▁포지션	-9.86745
▁해체	-9.86758
▁증	-9.868
▁발견된다	-9.86861
▁앤	-9.86899
▁인간의	-9.86913
협	-9.86918
▁오늘날	-9.86942
▁1975	-9.8699
▁이전에	-9.86999
▁보이는	-9.87014
▁재직	-9.87118
▁여행	-9.87171
▁그런	-9.87195
▁여객철도	-9.87209
▁전혀	-9.87214
십	-9.87215
▁비행	-9.87258
▁발매되었다	-9.87268
▁태어나	-9.87345
▁폐지	-9.87369
▁출판	-9.87412
▁반응	-9.87417
un	-9.87511
▁임시	-9.87563
▁1930	-9.87615
▁지도자	-9.87647
폭	-9.87824
)"	-9.8806
▁종종	-9.8814
▁선의	-9.88156
86	-9.88168
▁대륙	-9.88173
▁노동	-9.882
▁네트워크	-9.88216
▁여름	-9.88227
23	-9.88239
▁나오는	-9.88247
▁&	-9.88251
▁치료	-9.88321
▁화학	-9.88361
▁방식으로	-9.88417
혈	-9.88449
學	-9.88493
▁힘을	-9.88501
▁퍼	-9.88511
▁방향	-9.88515
그룹	-9.88602
베르	-9.88607
▁1940	-9.88613
▁담당	-9.88688
▁1963	-9.88798
▁몽골	-9.8882
킨	-9.88824
▁자신을	-9.88876
▁대중	-9.88936
▁원정	-9.89
▁제정	-9.89022
▁포르투갈	-9.89027
▁빌	-9.89063
▁아내	-9.89161
▁회복	-9.89168
카와	-9.89169
▁물질	-9.89182
▁기사	-9.89185
38	-9.89199
식을	-9.89255
▁좌	-9.8942
차원	-9.89438
엽	-9.89448
▁올라	-9.8945
▁해결	-9.895
▁영토	-9.89536
▁1969	-9.89554
▁보급	-9.8958
국가	-9.89586
▁알고	-9.89627
법을	-9.89635
▁유명하다	-9.89644
▁Z	-9.89658
▁연맹	-9.89815
▁아르헨티나	-9.89844
▁아무	-9.89902
군에	-9.89988
▁세운	-9.9
id	-9.90016
레이	-9.90083
▁거주	-9.90109
능	-9.9012
율	-9.90163
▁사용자	-9.90223
잔	-9.90265
인이	-9.90294
▁정신	-9.90301
▁무역	-9.90306
▁접근	-9.90328
▁지대	-9.90362
▁연대	-9.9038
▁폭발	-9.90405
▁있었으나	-9.90561
45	-9.90627
▁사람의	-9.90662
▁홀	-9.90663
▁흔히	-9.9069
욱	-9.90697
▁않을	-9.907
▁1948	-9.90714
▁측정	-9.90717
징	-9.90798
▁꽃	-9.90817
▁전라북도	-9.90843
▁해안	-9.90883
▁구성된	-9.90895
▁s	-9.90912
▁슈퍼	-9.90919
▁통신	-9.90922
▁잠	-9.90955
▁80	-9.90968
▁공군	-9.90973
▁대상으로	-9.91103
▁휴	-9.91105
▁군주	-9.91123
▁팀은	-9.91145
칭	-9.91193
一	-9.91216
▁왕조	-9.91323
▁잔	-9.91342
▁염	-9.91383
▁체결	-9.91435
▁외에	-9.91498
▁오랜	-9.91507
▁이후에	-9.91594
▁미군	-9.91598
ot	-9.916
▁했지만	-9.91605
직을	-9.91612
01	-9.91644
▁등장하는	-9.91665
시킬	-9.91665
▁통한	-9.91667
▁운	-9.91688
▁평양	-9.91726
▁개봉한	-9.91754
▁업무	-9.91765
▁귀족	-9.91863
▁장기	-9.91909
▁내용을	-9.91917
▁있었으며	-9.91921
▁형식	-9.91984
Z	-9.91994
▁거리	-9.92
▁획득	-9.9204
▁산맥	-9.92048
▁기념	-9.92081
▁즉위	-9.92153
▁휘	-9.92175
▁?	-9.92216
▁씨	-9.92218
▁되면서	-9.9228
▁코드	-9.92302
공사	-9.92374
들도	-9.92385
▁오히려	-9.92403
▁아주	-9.92418
▁작곡가	-9.92446
되었던	-9.92468
▁성인	-9.92589
▁되지	-9.92619
▁저장	-9.92633
▁구간	-9.92641
▁했으나	-9.92643
폐	-9.92694
▁지상	-9.92728
▁오전	-9.9273
▁다리	-9.92792
▁장식	-9.92807
▁육상	-9.92832
싱	-9.9285
▁우선	-9.92855
▁왜	-9.92859
▁중화민국	-9.92899
&	-9.92902
▁카드	-9.92939
▁사용되었다	-9.92981
▁자리	-9.92985
_4	-9.93091
▁뇌	-9.93093
▁장군	-9.93117
▁거부	-9.93118
▁응	-9.93256
폰	-9.93294
시아	-9.93296
▁형제	-9.93319
▁쌍	-9.93406
▁이스라엘	-9.93416
▁1977	-9.93425
▁논	-9.93495
▁얻었다	-9.93496
▁집중	-9.93517
로스	-9.93529
서를	-9.93575
陽	-9.93585
적이고	-9.93647
▁의회	-9.93683
▁차례	-9.93696
계의	-9.93747
우스	-9.93775
쪽	-9.93864
▁인하여	-9.93872
▁따	-9.93889
▁뜻한다	-9.9393
▁곳	-9.93952
海	-9.9397
정보	-9.93976
▁f	-9.94046
▁도움을	-9.94049
"(	-9.94083
벨	-9.94126
▁협력	-9.94165
▁입단	-9.94169
이었고	-9.94199
▁국회	-9.94202
사와	-9.94219
문학	-9.94242
35	-9.94264
▁통제	-9.94265
▁돌아가	-9.94282
▁유도	-9.94303
22	-9.94327
te	-9.94336
▁없고	-9.94365
▁사회적	-9.94377
셔	-9.94391
▁형태의	-9.94437
▁하게	-9.94446
▁북쪽으로	-9.94453
▁복귀	-9.94556
▁잠시	-9.9456
36	-9.9459
▁1949	-9.94637
▁이론	-9.94743
▁현실	-9.94753
이므로	-9.94767
▁캐	-9.94776
어로	-9.9479
明	-9.94815
▁홍콩	-9.94828
▁짧은	-9.94837
▁하는데	-9.94879
콘	-9.94924
세대	-9.94944
▁발표한	-9.94961
▁앞서	-9.94969
▁권력	-9.94983
▁마사	-9.94997
▁맡고	-9.95013
▁단위	-9.95041
▁경주	-9.95052
▁1962	-9.95079
il	-9.9508
=	-9.95127
▁이란	-9.95137
▁역사상	-9.95141
▁마음	-9.95164
님	-9.95171
+	-9.95204
▁없어	-9.95321
▁분야	-9.9536
▁표면	-9.95373
하려고	-9.95391
▁세력	-9.95391
렸다	-9.95578
樂	-9.956
▁했고	-9.95654
▁70	-9.95661
▁고전	-9.95675
▁민주당	-9.9568
德	-9.95693
한국	-9.95708
▁가능	-9.95708
시즌	-9.95736
▁그에게	-9.95748
없이	-9.9576
成	-9.95768
▁내에	-9.95772
에게서	-9.95866
▁1964	-9.95866
▁담	-9.95876
_2	-9.95887
▁왕국	-9.95969
▁루이	-9.96013
▁1946	-9.96015
감을	-9.96017
기의	-9.96017
▁왼쪽	-9.96067
성과	-9.9612
▁좋아	-9.96141
▁충	-9.96164
▁대사	-9.96258
▁관할한다	-9.96286
▁암살	-9.96291
▁어떻게	-9.96311
▁지역은	-9.96313
▁당시의	-9.96334
ation	-9.96395
▁SBS	-9.9642
西	-9.96443
▁부정	-9.96446
v	-9.96569
▁전시	-9.96572
▁하면서	-9.96592
▁뜻을	-9.96592
▁300	-9.96771
▁하였고	-9.96874
▁우크라이나	-9.9688
▁위성	-9.96894
▁주인공	-9.96931
09	-9.97067
시마	-9.97075
▁지나	-9.97107
▁맞	-9.97135
▁과정을	-9.97141
▁잎	-9.97169
▁가문	-9.97249
▁협회	-9.97276
▁제안	-9.97292
▁병력	-9.97302
05	-9.97319
전을	-9.97336
▁요청	-9.9737
▁일본에서	-9.97386
義	-9.9743
▁국왕	-9.97479
99	-9.97488
▁제기	-9.97573
▁시작한	-9.97606
초등학교는	-9.97607
▁마련	-9.97653
▁가족	-9.97656
98	-9.97669
▁부터	-9.97699
▁지낸	-9.97739
비아	-9.97741
▁광고	-9.9779
08	-9.97825
▁온라인	-9.97854
이기	-9.97857
▁있었는데	-9.97869
한다고	-9.97894
과학	-9.97898
ine	-9.97912
▁점에서	-9.97984
문을	-9.9812
▁가스	-9.98154
▁바다	-9.98169
롱	-9.98269
▁반도	-9.98372
▁소유	-9.98409
▁격	-9.98425
▁장비	-9.98524
▁생성	-9.98562
쥐	-9.98571
▁특수	-9.98597
▁1967	-9.98654
▁넓은	-9.98754
▁비밀	-9.98761
렉	-9.98811
▁다카	-9.98824
▁중세	-9.98836
텐	-9.98843
▁II	-9.98897
▁성격	-9.98914
▁북쪽	-9.98916
▁경계	-9.98951
찰	-9.98952
▁일정	-9.98956
▁개정	-9.98971
▁만큼	-9.98992
▁적은	-9.99097
▁때에	-9.99101
▁정도의	-9.99153
▁끝	-9.99162
▁득점	-9.9919
▁됐다	-9.99211
▁수사	-9.99232
▁범죄	-9.99253
은행	-9.99261
▁한다고	-9.99263
55	-9.9931
▁자체	-9.99326
▁세계에서	-9.99424
혁	-9.99476
▁스코틀랜드	-9.99619
▁칭	-9.9962
▁보였다	-9.99647
▁극장	-9.99656
었으나	-9.99728
▁미사일	-9.9977
▁브	-9.99796
▁CD	-9.99909
▁효	-9.99951
85	-9.99971
at	-10.0009
▁이끌고	-10.0016
°	-10.0018
▁사용하고	-10.0018
▁건강	-10.0023
▁과정	-10.0025
동음이의	-10.0026
▁은하	-10.0027
▁약간	-10.003
▁묘사	-10.0031
함에	-10.0031
37	-10.0035
▁남편	-10.004
▁망명	-10.004
▁확보	-10.0046
▁멸망	-10.0048
▁오픈	-10.0053
모토	-10.0056
▁LG	-10.0056
까	-10.0064
▁받지	-10.0065
▁마드리드	-10.0069
벤	-10.0077
▁미디어	-10.0079
▁고종	-10.0083
ter	-10.0085
▁보냈다	-10.0093
▁팀이	-10.0094
▁얻어	-10.0096
로서의	-10.01
▁증명	-10.0108
굴	-10.0109
▁불러	-10.011
▁앞에	-10.0111
었는데	-10.0112
▁다르다	-10.0123
▁잇는	-10.0124
시장	-10.0125
▁전용	-10.0133
▁간주	-10.0133
▁재산	-10.014
▁진화	-10.0141
65	-10.0141
▁철학	-10.0142
▁1965	-10.0149
수는	-10.0149
32	-10.015
▁이번	-10.0151
▁안정	-10.0154
▁에도	-10.0156
▁보수	-10.0158
▁Re	-10.016
▁이후에는	-10.0161
▁작품을	-10.0165
▁성립	-10.0165
▁지금의	-10.0165
▁공산당	-10.0169
▁속한다	-10.0177
▁계급	-10.0178
▁베르	-10.0179
▁미술	-10.0179
▁성적	-10.0182
▁사후	-10.0183
ion	-10.0187
▁흑	-10.0196
▁투자	-10.0196
▁외교	-10.0197
▁프	-10.0201
(16	-10.021
▁범위	-10.0211
75	-10.0214
죄	-10.0216
지방	-10.0218
킹	-10.022
95	-10.0221
▁입학	-10.0223
▁에이	-10.0225
高	-10.0226
31	-10.0226
지도	-10.0227
▁외국	-10.023
▁은행	-10.0232
▁정권	-10.0233
▁콘	-10.0233
시설	-10.0243
개발	-10.0244
▁베이징	-10.0246
▁탄	-10.0247
▁때부터	-10.025
▁주교	-10.0251
▁1966	-10.0256
lo	-10.0258
▁사이트	-10.0258
▁동일한	-10.0265
▁헨리	-10.0266
▁가사	-10.0267
▁오르	-10.0269
▁뮤직	-10.0276
객	-10.0277
▁통해서	-10.0279
▁동료	-10.028
▁차지했다	-10.0281
▁작성	-10.0281
헤	-10.0282
▁팬	-10.0282
▁대수	-10.0286
▁숲	-10.0287
▁기억	-10.0288
▁곳에서	-10.029
▁예상	-10.029
▁전주	-10.0291
▁제거	-10.0295
▁기구	-10.0297
▁대규모	-10.0299
▁해서	-10.03
《	-10.0301
▁결성	-10.0307
▁지속	-10.031
▁활동하였다	-10.0314
▁합병	-10.0317
▁생물	-10.0318
▁학문	-10.0318
ly	-10.0319
지원	-10.0322
▁그것은	-10.0327
▁투표	-10.0327
탕	-10.0329
▁무렵	-10.0332
▁솔로	-10.0333
▁공개된	-10.0335
▁기반으로	-10.0336
▁소장	-10.0338
세계	-10.0346
▁보아	-10.0347
64	-10.0349
하고자	-10.0351
▁연출	-10.0354
▁등록	-10.0355
▁뜻	-10.0355
▁검사	-10.0358
▁했으며	-10.0359
▁라인	-10.0359
▁전쟁이	-10.0366
▁시간이	-10.0367
▁민주	-10.0368
▁p	-10.0368
▁1961	-10.0376
06	-10.038
▁이사	-10.0381
▁칠	-10.0385
사는	-10.0391
▁살고	-10.0396
▁목적	-10.0397
▁요한	-10.0402
력이	-10.0405
화가	-10.0408
▁편집	-10.0415
56	-10.0415
▁기록하였다	-10.0421
▁달러	-10.0422
ir	-10.0429
▁해당하는	-10.0431
대가	-10.0431
上	-10.0431
슬	-10.0433
部	-10.0435
▁기획	-10.0435
▁수용	-10.0436
▁이탈리아의	-10.0443
지게	-10.0447
▁추정된다	-10.0449
섭	-10.0449
家	-10.0454
으면	-10.0454
▁동맹	-10.0455
▁비록	-10.0456
▁영향력	-10.0463
▁백제	-10.0466
▁축	-10.0466
▁단어	-10.0469
04	-10.0477
▁특	-10.0479
▁썼다	-10.0483
세포	-10.0483
▁발생한	-10.0489
▁이슬람	-10.049
▁역대	-10.0491
光	-10.0492
・	-10.0492
▁차이가	-10.0499
▁체계	-10.0503
▁탑	-10.0503
릭	-10.0505
▁상황	-10.0505
▁희	-10.0508
▁벨	-10.051
부대	-10.0512
st	-10.0518
▁출장	-10.0519
▁채용	-10.0519
石	-10.0521
▁그리	-10.0521
받았다	-10.0521
▁정부가	-10.0522
▁이르는	-10.0526
시킨다	-10.0526
웨이	-10.0533
사에	-10.0536
뉴	-10.0537
▁엄	-10.0544
▁흡수	-10.0545
▁35	-10.0547
▁사는	-10.0549
▁이용해	-10.0549
▁피해	-10.0549
ie	-10.0551
▁높이는	-10.0552
'(	-10.0554
▁박물관	-10.0558
루스	-10.0563
▁계열	-10.0566
▁워싱턴	-10.0568
▁회전	-10.0572
▁위해서는	-10.0572
▁넘어	-10.0576
▁관찰	-10.0578
학과	-10.0578
▁체포	-10.058
▁권리	-10.0581
▁인근	-10.0581
▁연재	-10.0583
타이	-10.0585
▁술	-10.0591
▁변호사	-10.0594
얼	-10.0596
콜	-10.0596
▁수가	-10.0597
도시	-10.0605
주는	-10.0605
57	-10.0608
68	-10.0608
▁되면	-10.0609
▁충청북도	-10.0616
▁공원	-10.0619
스케	-10.0621
이었으며	-10.0624
▁논의	-10.0627
▁지진	-10.0628
34	-10.0632
▁벨기에	-10.0632
▁흥	-10.0635
▁군인	-10.0636
▁공식적으로	-10.0636
▁근무	-10.064
부를	-10.0643
▁대기	-10.0647
▁사망했다	-10.065
▁위험	-10.0654
▁이유	-10.0655
▁방향으로	-10.0659
에게는	-10.066
33	-10.0663
▁훨씬	-10.067
▁교토	-10.0674
▁한때	-10.0676
▁지원을	-10.0676
▁패배	-10.0683
▁도중	-10.0685
제도	-10.0686
▁정상	-10.07
▁합의	-10.0704
멘	-10.0709
으	-10.0709
▁영입	-10.071
▁행위	-10.0715
▁그것을	-10.0716
▁회의	-10.0716
▁전력	-10.072
▁구축	-10.0724
man	-10.0728
▁청나라	-10.0728
▁부산광역시	-10.0731
88	-10.0732
▁정복	-10.0738
▁이미지	-10.074
▁전후	-10.0743
行	-10.0752
▁타고	-10.0756
연구	-10.0757
겨	-10.0758
▁c	-10.0759
▁이용한	-10.0759
▁단계	-10.0767
▁러시아의	-10.0776
▁처음에는	-10.0783
▁봄	-10.0784
▁그런데	-10.0784
홀	-10.0787
to	-10.0788
왔다	-10.079
▁맡아	-10.0794
▁받게	-10.0798
지가	-10.0801
▁운용	-10.0813
▁지금까지	-10.0815
▁살아	-10.0817
선이	-10.082
드는	-10.082
▁운전	-10.0825
▁예선	-10.0826
용으로	-10.0827
▁근대	-10.0828
▁서쪽	-10.0832
ne	-10.0833
▁시각	-10.0834
na	-10.086
▁회장	-10.0862
書	-10.0865
北	-10.0866
▁총리	-10.0866
武	-10.0868
▁고정	-10.0869
ta	-10.0874
▁재정	-10.0875
39	-10.088
닌	-10.0882
77	-10.0885
▁상당히	-10.0885
라운드	-10.0888
▁계획을	-10.0892
▁강제	-10.0894
▁요소	-10.0897
▁400	-10.0902
▁기초	-10.0905
▁핵심	-10.0905
▁남북	-10.0909
▁현재까지	-10.0911
▁저서	-10.0916
▁이것을	-10.0921
▁소비에트	-10.0923
▁빠른	-10.0928
▁오래된	-10.0928
▁번째로	-10.0934
▁시작하여	-10.0935
▁나치	-10.0935
▁유나이티드	-10.0937
▁포함되어	-10.094
▁족	-10.0944
▁보장	-10.095
▁카를	-10.0951
▁늘	-10.0955
폴	-10.096
▁정착	-10.0966
▁자는	-10.0968
▁차이	-10.0969
▁보는	-10.0969
같은	-10.0972
델	-10.0972
▁영업	-10.0972
연대	-10.0974
▁말았다	-10.0978
▁이야기를	-10.0986
▁익	-10.0993
무라	-10.0993
▁수출	-10.0999
▁백작	-10.1001
트라	-10.1009
▁아메리카	-10.1009
▁넘는	-10.1012
▁1941	-10.1016
지에	-10.102
풀	-10.1025
▁뜻으로	-10.1026
▁함대	-10.1028
▁덴마크	-10.1029
46	-10.1032
▁1944	-10.1034
▁그러한	-10.1042
▁경기에	-10.105
▁탑재	-10.1056
▁전쟁을	-10.1058
▁마르	-10.106
▁관할	-10.1065
▁사망하였다	-10.1066
빛	-10.1071
▁개편	-10.1073
▁오른쪽	-10.1076
원을	-10.1083
▁시인	-10.1085
▁결과를	-10.1085
▁벤	-10.1089
정치	-10.1091
im	-10.1093
전에	-10.1097
▁90	-10.1099
▁공기	-10.1101
▁라이브	-10.1101
▁인사	-10.1107
▁알게	-10.1108
▁브랜드	-10.1109
▁양성	-10.111
地	-10.1113
▁블랙	-10.1115
▁두었다	-10.1115
軍	-10.1116
_5	-10.1116
ᆞ	-10.1118
화된	-10.1122
94	-10.1122
▁혼	-10.1123
▁가능성이	-10.1127
다고	-10.1129
▁군대	-10.113
밍	-10.1131
장의	-10.1132
▁모스크바	-10.1138
▁후지	-10.1138
▁레코드	-10.1146
47	-10.1148
▁발표하였다	-10.1149
▁창립	-10.1152
▁죄	-10.1152
▁창조	-10.1155
▁출발	-10.1161
▁대표팀	-10.1167
▁크기	-10.1168
新	-10.117
▁팀을	-10.1172
▁향상	-10.1173
▁상륙	-10.1174
▁원소	-10.1176
▁회원	-10.1182
▁응용	-10.1185
▁선조	-10.1187
세에	-10.119
▁이유는	-10.1192
▁태풍	-10.1192
▁시작으로	-10.1193
▁선수들	-10.1196
▁원자	-10.1197
▁파견	-10.1203
▁체제	-10.1205
89	-10.1206
냈다	-10.1206
▁전략	-10.121
▁프로그램이다	-10.121
칼	-10.1215
▁숙	-10.122
▁청소년	-10.1221
▁Y	-10.1222
▁규모	-10.1237
▁부활	-10.1241
▁굴	-10.1241
하였지만	-10.1245
대회	-10.1247
▁제시	-10.125
54	-10.1253
▁사용되고	-10.1254
▁지식	-10.1254
▁차트	-10.1255
03	-10.1256
▁길이는	-10.1259
▁대개	-10.126
자들이	-10.1264
맥	-10.127
▁공포	-10.1272
▁직업	-10.1272
▁도착	-10.1273
펜	-10.1275
▁죽었다	-10.1277
é	-10.1284
▁후에는	-10.1286
▁특성	-10.1286
▁위협	-10.1286
66	-10.1288
44	-10.1291
기원전	-10.1294
▁방법	-10.1301
▁하면	-10.1301
▁공주	-10.131
▁1956	-10.1315
엄	-10.1321
▁현상	-10.1322
정책	-10.1324
水	-10.1332
▁역을	-10.1332
▁제어	-10.1339
▁거대한	-10.134
▁강의	-10.134
▁의식	-10.1341
인지	-10.1343
5%	-10.1344
▁방법을	-10.1348
▁아들로	-10.1352
▁이룬다	-10.1355
▁철수	-10.1356
▁1958	-10.1359
▁궁	-10.1363
▁울산	-10.1363
▁다수	-10.1365
성은	-10.1366
▁불렀다	-10.1366
▁도달	-10.1368
▁승인	-10.1368
▁부상	-10.1372
▁지상역이다	-10.1376
▁강점기	-10.1377
▁1947	-10.1377
셀	-10.1385
神	-10.1386
▁가서	-10.1386
낸	-10.1387
▁견	-10.1388
▁금속	-10.139
87	-10.1395
군과	-10.1396
67	-10.1397
▁맨	-10.1399
뿐만	-10.1401
58	-10.1406
▁투어	-10.1409
▁배경	-10.141
▁반영	-10.1412
▁수원	-10.1415
▁것이며	-10.1417
▁호텔	-10.1417
(15	-10.1421
▁콘서트	-10.1422
)’	-10.1428
▁역임했다	-10.1429
연합	-10.143
▁교류	-10.1431
▁이전의	-10.1439
▁법칙	-10.144
田	-10.1444
▁선수가	-10.1447
▁집안	-10.1447
97	-10.1449
▁취임	-10.145
▁엔터테인먼트	-10.1453
사건	-10.1456
▁이중	-10.1459
스를	-10.146
▁하늘	-10.1468
▁명령	-10.147
예술	-10.1472
▁음식	-10.1476
▁맹	-10.148
▁국가의	-10.1482
▁나타내는	-10.1484
▁소년	-10.1484
멸	-10.1489
49	-10.1489
▁라이	-10.1489
▁노동자	-10.1496
▁건국	-10.1498
▁입자	-10.1499
59	-10.15
▁안전	-10.1508
▁부모	-10.1511
▁SK	-10.152
▁메이	-10.152
▁먹	-10.1521
▁오페라	-10.1525
▁여기에	-10.1529
▁점을	-10.1531
▁달성	-10.1532
였으나	-10.1534
▁양자	-10.154
▁진입	-10.1542
▁채택	-10.1547
▁토지	-10.155
▁않았고	-10.1552
공원	-10.1554
▁언	-10.1554
▁탈출	-10.1557
▁종류의	-10.1562
조직	-10.1562
▁동작	-10.1574
▁신성	-10.1576
시키기	-10.1579
치는	-10.158
郡	-10.158
▁수상했다	-10.1582
▁45	-10.1583
▁나와	-10.1585
▁꼬리	-10.1587
▁반복	-10.1587
물을	-10.1591
▁일대	-10.1593
▁항공기	-10.1599
▁바이	-10.1605
▁위원회	-10.1605
혀	-10.1611
▁한다는	-10.1611
▁오래	-10.1613
▁끝난	-10.1613
▁하나는	-10.1613
곳	-10.1615
이치	-10.1615
la	-10.1622
▁수준	-10.1624
하였던	-10.1625
▁출신으로	-10.1626
▁만주	-10.1626
▁오스만	-10.163
▁시간을	-10.1634
▁수록	-10.1635
▁최초	-10.1636
▁규칙	-10.164
기구	-10.164
관을	-10.1643
▁열렸다	-10.1644
▁시티	-10.1646
▁세르비아	-10.1649
▁겨울	-10.1657
〉,	-10.1658
▁상업	-10.1659
▁취급	-10.1662
96	-10.1662
▁단지	-10.1664
▁챔피언스리그	-10.167
기간	-10.1671
▁1954	-10.1675
78	-10.1678
▁1919	-10.1679
▁방법으로	-10.1684
▁한반도	-10.1686
.”	-10.1687
경기에	-10.1689
▁막부	-10.1689
▁이주	-10.1698
▁모아	-10.1705
▁것처럼	-10.1706
76	-10.1706
륜	-10.1714
▁성경	-10.1718
되면	-10.1722
▁내용	-10.1722
마리	-10.1722
▁밀도는	-10.1726
▁기반	-10.173
kg	-10.1731
▁없다고	-10.1733
▁1939	-10.1742
▁사건이	-10.1745
관계	-10.1749
▁1959	-10.1749
ra	-10.1752
▁타이완	-10.1759
▁보여	-10.1764
▁수비	-10.1772
▁한번	-10.1772
▁수송	-10.1772
▁건너	-10.1776
▁받았고	-10.1781
▁갔다	-10.1781
▁플랫폼	-10.1783
▁위기	-10.1785
▁유엔	-10.1787
부의	-10.1787
▁개념	-10.1787
仁	-10.179
▁쓰는	-10.179
▁예수	-10.1791
세와	-10.1795
자들은	-10.1796
▁to	-10.1797
리가	-10.1804
▁전공	-10.1805
▁부르는	-10.1809
▁금융	-10.1809
84	-10.1816
▁롯데	-10.1816
▁몽	-10.1818
ut	-10.1818
▁장르	-10.1819
▁변화를	-10.1827
사이	-10.1827
▁세워	-10.1832
렬	-10.1833
▁자료	-10.1833
▁유전자	-10.1839
▁마이클	-10.1844
▁기록한	-10.1845
▁마치	-10.185
os	-10.1854
▁민간	-10.1855
53	-10.1862
▁프로듀서	-10.1863
▁반드시	-10.1875
▁트랙	-10.1879
▁1952	-10.1879
기업	-10.188
▁조합	-10.1892
▁화면	-10.1893
龍	-10.1893
▁공공	-10.1901
原	-10.1905
▁최다	-10.1906
라이	-10.1907
▁발견된	-10.1911
▁에피소드	-10.1915
▁공을	-10.1916
▁성우	-10.1916
▁사람들	-10.1918
특	-10.1918
▁로버트	-10.1918
▁제대로	-10.192
▁작품은	-10.1923
▁진압	-10.1926
빙	-10.1927
▁발매된	-10.1931
▁사장	-10.1932
▁창설	-10.1933
▁대학교에서	-10.1934
am	-10.1934
co	-10.1936
▁사건을	-10.1938
▁기록이	-10.1941
▁추정	-10.1943
▁내용은	-10.1944
▁장소	-10.1945
漢	-10.1945
▁명이	-10.1947
74	-10.1951
▁되자	-10.1951
▁상징	-10.1955
차전	-10.196
▁각각의	-10.196
▁했던	-10.1961
▁역이다	-10.1965
▁신호	-10.1967
▁상승	-10.1973
▁시조	-10.1974
젤	-10.1979
▁뮤지컬	-10.1982
접	-10.1993
▁목표로	-10.1993
▁예정	-10.1994
사상	-10.1995
▁군대를	-10.1998
득	-10.2001
▁합류	-10.2002
국의	-10.2013
▁소리	-10.2014
▁달라	-10.2019
▁뜻하는	-10.2019
▁근거	-10.2021
▁타이틀	-10.2022
▁계기로	-10.2025
▁전파	-10.2026
69	-10.2029
▁변환	-10.2031
ch	-10.2032
ard	-10.2033
43	-10.2033
▁마침내	-10.2036
▁스튜디오	-10.2037
▁인권	-10.2039
중앙	-10.204
▁형태를	-10.204
▁연구소	-10.2049
▁지금	-10.205
-3	-10.2053
▁이하	-10.2054
▁가졌다	-10.2054
▁의료	-10.2054
▁영역	-10.2054
▁무덤	-10.2059
갔다	-10.206
▁서버	-10.2062
▁일본군	-10.2063
만큼	-10.2064
世	-10.2078
▁건조	-10.208
▁정비	-10.2082
▁전사	-10.2082
▁세종	-10.2084
ac	-10.2085
성의	-10.2089
▁신학	-10.2089
▁둘째	-10.2089
02	-10.209
▁화산	-10.2091
▁좀	-10.2095
요시	-10.2097
▁노예	-10.2101
▁기원	-10.2103
▁깊은	-10.2103
▁투입	-10.2104
▁놓	-10.2107
▁운동을	-10.2111
이던	-10.2114
▁논란이	-10.2118
▁특별한	-10.2121
▁지닌	-10.2121
핑	-10.2122
▁나는	-10.2128
▁청년	-10.2129
▁다수의	-10.2132
▁지급	-10.2136
제가	-10.2141
▁군의	-10.2146
이었으나	-10.2147
▁보안	-10.2147
핀	-10.2151
▁마크	-10.2168
▁어떠한	-10.2168
▁재판	-10.217
▁나왔다	-10.2174
▁주제	-10.2175
펠	-10.2177
▁분자	-10.2181
▁알려졌다	-10.2186
럼	-10.2186
▁카메라	-10.2189
▁교사	-10.2192
▁신화	-10.2194
부에	-10.2196
▁가격	-10.2197
▁존재하는	-10.22
▁1000	-10.2206
▁대략	-10.2206
▁준다	-10.2207
원이	-10.2207
딘	-10.2207
▁머	-10.2208
▁명단	-10.2211
▁점점	-10.2211
▁자살	-10.2211
▁수집	-10.2212
▁국제공항	-10.2212
나는	-10.2216
▁1942	-10.2219
▁벽	-10.222
▁반발	-10.2224
리를	-10.2225
▁이들의	-10.2227
ge	-10.223
받은	-10.2231
縣	-10.2231
▁이제	-10.2232
▁모여	-10.2236
▁쓰이는	-10.2236
▁문장	-10.2242
▁1955	-10.2242
院	-10.2244
웅	-10.2246
▁후기	-10.2256
솔	-10.2258
▁구속	-10.2261
(17	-10.2261
▁범주	-10.2262
▁항복	-10.2268
▁능력을	-10.2272
▁속도	-10.2273
누스	-10.2276
▁경기는	-10.2277
▁창단	-10.2281
朴	-10.2283
42	-10.2286
전쟁	-10.2289
∼	-10.229
▁아침	-10.229
미터	-10.2291
▁마지막으로	-10.2293
▁졸업하고	-10.2297
官	-10.2297
▁지은	-10.2304
▁시리아	-10.2305
▁공부	-10.2306
▁PC	-10.2308
▁선수단	-10.2316
▁포함하고	-10.2327
▁항구	-10.2328
▁천체	-10.233
▁낮	-10.233
시대	-10.2332
▁36	-10.2334
▁에어	-10.2335
▁측면	-10.2335
량이	-10.2347
▁하였으나	-10.2353
▁바르	-10.2354
▁하나인	-10.2355
ul	-10.2356
째	-10.2356
51	-10.2361
▁갑	-10.2366
▁1953	-10.2367
▁주고	-10.2368
▁개신교	-10.2369
▁개발한	-10.237
▁소수	-10.237
▁붉은	-10.2375
▁한국어	-10.2376
▁자동	-10.2377
▁감정	-10.2379
▁포위	-10.2381
동안	-10.2383
▁찬	-10.2384
▁앞에서	-10.2384
79	-10.2384
▁외국인	-10.2386
했다는	-10.2388
▁피해를	-10.2391
▁들어서	-10.2394
▁능력	-10.2395
▁다음은	-10.2396
원으로	-10.2398
~19	-10.2403
▁예정이다	-10.2403
분에	-10.2403
▁무리	-10.2405
▁갖는	-10.2405
아이	-10.2408
▁개조	-10.241
큐	-10.241
▁비교	-10.2413
▁보컬	-10.2413
잡	-10.2414
▁33	-10.2414
io	-10.2415
▁단일	-10.2422
▁2019	-10.2422
▁화물	-10.2422
▁교환	-10.2424
▁되며	-10.2425
▁예측	-10.2425
經	-10.2426
▁이곳	-10.2426
▁않으며	-10.2429
▁무대	-10.2433
▁해에	-10.2435
▁있었기	-10.2436
▁모리	-10.2436
▁분포	-10.2438
▁요새	-10.244
기와	-10.2442
▁1943	-10.2446
▁말에	-10.2449
▁가치	-10.2449
인들은	-10.245
▁정확한	-10.2453
▁문제로	-10.2459
▁모드	-10.2459
▁기술을	-10.246
▁베를린	-10.2461
ol	-10.2462
▁38	-10.2463
▁아버지는	-10.2465
니스	-10.2465
▁온도	-10.2465
어를	-10.2469
▁나누어	-10.2472
▁전설	-10.2473
▁조금	-10.2474
회를	-10.2474
▁생명	-10.2475
▁예산	-10.2477
ri	-10.2478
▁개봉	-10.2482
▁번주	-10.2484
▁분할	-10.2486
62	-10.2488
▁부근	-10.2488
de	-10.2488
▁평가를	-10.2489
로도	-10.2489
tion	-10.2492
▁보조	-10.2493
신문	-10.2494
▁해당한다	-10.2494
▁불상	-10.2497
▁게이	-10.2497
분류	-10.2497
자인	-10.2501
▁지방의	-10.2508
本	-10.251
op	-10.2513
▁지어	-10.2517
▁쓰고	-10.2526
려고	-10.2526
▁글을	-10.2533
▁오랫동안	-10.2536
▁절대	-10.2537
▁호수	-10.2538
▁1957	-10.2539
▁진보	-10.2545
▁트리	-10.2549
▁중부	-10.2549
▁크고	-10.2552
▁FA	-10.2555
▁방면	-10.2559
다이	-10.2561
▁순위	-10.2563
▁=	-10.2565
부인	-10.2566
▁신인	-10.2569
興	-10.2579
비를	-10.258
투스	-10.2581
▁방출	-10.2584
▁고용	-10.2584
▁탄생	-10.2586
▁음악을	-10.2589
▁방송국	-10.2592
41	-10.2595
▁빠르게	-10.2596
▁전부	-10.2602
▁받을	-10.261
▁공업	-10.2611
▁그들이	-10.2613
▁알아	-10.2617
비트	-10.2619
▁훗날	-10.262
행위	-10.2624
92	-10.2624
▁대부분은	-10.2627
▁추측	-10.2634
리오	-10.2634
▁입장	-10.2635
洞	-10.2637
▁개최된	-10.264
白	-10.2642
▁왕자	-10.2645
▁프로그램을	-10.2646
▁작품이다	-10.2646
▁상하이	-10.2651
▁노르웨이	-10.2651
▁당시에는	-10.2652
극장	-10.2653
▁논문	-10.2656
학자	-10.2659
▁경우는	-10.2661
▁남은	-10.2662
▁전화	-10.2668
▁팝	-10.2672
政	-10.2675
▁안에서	-10.2675
대사	-10.2678
all	-10.2678
▁데뷔하였다	-10.2679
無	-10.268
▁상황에서	-10.268
▁괴	-10.2682
▁폭력	-10.2689
son	-10.2689
베이	-10.269
▁포함한다	-10.2691
몰	-10.2694
▁Me	-10.2697
▁나타난다	-10.2701
▁국도	-10.2711
▁n	-10.2717
ry	-10.2719
▁불법	-10.2719
꽃	-10.272
▁향해	-10.2722
▁벡터	-10.2723
會	-10.2723
▁의미를	-10.2726
호를	-10.2726
▁배출	-10.2726
▁메모리	-10.2727
▁도서관	-10.2733
▁병원	-10.2733
▁곡을	-10.2733
넷	-10.2737
▁활동하고	-10.2741
▁임대	-10.2741
▁곤	-10.2742
▁합격	-10.2746
▁마이크로소프트	-10.2753
▁동의	-10.2754
▁원리	-10.2758
▁활	-10.2758
▁앞두고	-10.2762
ver	-10.2763
▁감독의	-10.2771
▁반대로	-10.2772
▁자원	-10.2777
▁나이로	-10.2777
호는	-10.2777
▁활동했다	-10.2783
인들이	-10.2787
▁최소	-10.2791
단계	-10.2792
里	-10.2793
▁소재	-10.2796
▁지시	-10.2797
▁정책을	-10.2798
릿	-10.28
▁제주	-10.28
▁조작	-10.28
93	-10.2803
▁편입	-10.2804
▁왕국의	-10.2806
스카	-10.2806
▁정지	-10.2809
단의	-10.2812
▁서양	-10.2813
면에	-10.2813
▁데이비드	-10.2814
납	-10.2817
五	-10.2819
구조	-10.2824
▁전통적인	-10.283
se	-10.2831
▁제작한	-10.2831
▁고도	-10.2832
지지	-10.2837
▁세계대전	-10.2842
▁카르	-10.2843
▁KBO	-10.2843
▁주전	-10.2853
▁분야에서	-10.2854
▁인종	-10.2856
▁아마	-10.2858
활동	-10.2859
▁신앙	-10.286
서울	-10.2868
▁제출	-10.2868
▁명성	-10.2873
카이	-10.2878
▁작사	-10.2881
▁필요하다	-10.2882
▁가진다	-10.2883
太	-10.2885
▁없으며	-10.289
▁관료	-10.2893
▁대표하는	-10.2893
▁모양의	-10.2893
공화국	-10.2894
트로	-10.2905
왕후	-10.2911
日	-10.2912
生	-10.2917
사단	-10.2919
병원	-10.292
부가	-10.2923
▁받는다	-10.2926
82	-10.2928
▁서비스를	-10.2931
분의	-10.2932
▁거래	-10.2934
죽	-10.2935
▁명칭은	-10.2947
▁나들목	-10.2949
▁의학	-10.295
▁등장한다	-10.295
▁대한민국에서는	-10.2951
▁살해	-10.2951
林	-10.2952
개국	-10.2954
▁d	-10.2956
(1	-10.2957
주에	-10.296
61	-10.296
ant	-10.297
졌고	-10.2972
▁스토리	-10.2973
첩	-10.2975
▁니시	-10.2977
▁확정	-10.2979
▁민법	-10.298
▁셀	-10.298
君	-10.2981
▁올렸다	-10.2984
트리	-10.2987
72	-10.2988
▁선거에서	-10.2989
▁위상	-10.2991
케이	-10.2995
트는	-10.2996
相	-10.2996
되었을	-10.3005
▁목사	-10.3008
세이	-10.3008
▁척	-10.3015
▁침략	-10.3018
▁시작한다	-10.3021
▁분열	-10.3024
▁솔	-10.3026
▁높다	-10.3034
▁명나라	-10.3038
▁사라	-10.3039
▁되	-10.3047
▁당나라	-10.3048
▁1936	-10.305
▁공연을	-10.3051
▁방식	-10.3052
▁선정되었다	-10.3056
▁구현	-10.3059
▁한자	-10.3063
▁관계가	-10.3064
聖	-10.307
▁대통령이	-10.308
▁하였으며	-10.3086
개를	-10.3089
생활	-10.3099
▁■	-10.3101
100	-10.3102
▁의무	-10.3103
▁기체	-10.3109
▁이루고	-10.3112
최	-10.3112
▁150	-10.3114
▁측	-10.3118
▁그렇게	-10.3118
▁확립	-10.3118
▁넓이는	-10.3127
▁위반	-10.3129
▁캘리포니아	-10.3133
▁기도	-10.3134
문제	-10.3134
시오	-10.3136
▁이루어졌다	-10.3136
忠	-10.3139
▁흑인	-10.3139
▁만들어졌다	-10.3143
▁귀국	-10.3145
법에	-10.3148
▁1910	-10.3148
비치	-10.3149
▁사립	-10.315
▁주장하였다	-10.315
▁거두었다	-10.315
▁중화	-10.3151
▁로켓	-10.3152
▁1918	-10.3155
▁해산	-10.3156
▁어린이	-10.3162
▁장수	-10.3162
▁방영된	-10.3166
▁연합군	-10.3169
▁비난	-10.3171
바라	-10.3172
▁피아노	-10.3174
마르	-10.3174
▁나오	-10.3178
형을	-10.3181
▁이승만	-10.3189
▁존재하지	-10.319
▁올림픽에서	-10.3192
▁합성	-10.3194
府	-10.3195
▁상품	-10.3196
▁자신들의	-10.3197
▁나타나	-10.3198
▁기지	-10.3199
▁나뉜다	-10.32
▁개시	-10.3201
▁다다	-10.3202
▁법원	-10.3209
▁놓고	-10.3209
▁의장	-10.321
▁성당	-10.3211
▁시작된	-10.3212
▁많아	-10.3212
힐	-10.3214
▁공장	-10.3215
▁연구를	-10.3219
▁실현	-10.3222
▁역사적	-10.3223
▁감독이	-10.3224
디아	-10.3225
학적	-10.3226
▁바뀌었다	-10.3226
▁서구	-10.3241
71	-10.3243
▁유사한	-10.3244
카드	-10.3247
▁메인	-10.3249
소를	-10.325
▁붙	-10.3252
ce	-10.3252
▁연료	-10.3255
▁1914	-10.3255
▁블루	-10.3256
▁감독으로	-10.326
▁중의	-10.326
▁신분	-10.3262
▁가지는	-10.3264
본부	-10.3265
▁나폴레옹	-10.3274
게임	-10.3274
▁작업을	-10.3276
▁열대	-10.3277
부는	-10.3281
▁크다	-10.3283
▁유적	-10.3285
▁센	-10.3287
▁그와	-10.329
▁신체	-10.3292
▁루마니아	-10.3293
▁중이다	-10.3295
▁직원	-10.3301
▁경기장	-10.3303
▁주민	-10.3305
▁도시이다	-10.3305
▁린	-10.3306
으로서의	-10.3306
都	-10.3309
▁포함하여	-10.331
조사	-10.3314
▁1938	-10.3318
▁활약을	-10.3319
▁설치된	-10.3322
▁황금	-10.3323
81	-10.3324
오카	-10.3325
▁얻은	-10.3327
▁유학	-10.333
▁창작	-10.3334
▁털	-10.3336
상태	-10.3338
린다	-10.3338
선은	-10.3339
_6	-10.3341
▁결	-10.3341
▁시즌에	-10.3343
▁되기	-10.3343
▁이후로	-10.3343
▁질병	-10.3346
83	-10.3346
▁듣고	-10.335
▁침입	-10.3351
▁작품으로	-10.3351
▁보낸	-10.3355
▁무게	-10.3361
왕의	-10.3361
▁자치	-10.3362
▁중요	-10.3365
▁사단	-10.3367
▁내의	-10.3369
▁이혼	-10.3375
▁정원	-10.3377
제로	-10.3377
▁모양	-10.3382
▁화가	-10.3384
음을	-10.3389
(2	-10.3391
▁손자	-10.3392
▁쓸	-10.34
▁경우에	-10.3405
▁관광	-10.3406
▁못하였다	-10.3416
▁발음	-10.3418
원의	-10.3421
ent	-10.3421
▁연결하는	-10.3426
門	-10.3426
▁일어났다	-10.3427
73	-10.3428
▁침	-10.3433
▁들면	-10.3439
▁착	-10.3442
▁비롯하여	-10.3443
鄭	-10.3443
▁글자	-10.3446
▁찰스	-10.3447
▁학위를	-10.3449
▁완전	-10.3451
▁출마	-10.3453
▁전선	-10.3455
▁잘못	-10.3457
▁선고	-10.3457
52	-10.3457
▁역으로	-10.3457
▁원작	-10.3471
▁공유	-10.3472
▁정치인이다	-10.3472
▁길을	-10.3473
▁주어	-10.3484
값	-10.3485
▁소녀	-10.3487
▁세계적으로	-10.3487
우리	-10.3488
▁임금	-10.349
▁장착	-10.3494
티스	-10.3494
▁노래를	-10.3494
▁내전	-10.3495
▁하위	-10.3495
스티	-10.3497
▁혼란	-10.3498
롤	-10.35
▁대부분이	-10.3501
and	-10.3501
스러운	-10.3501
永	-10.3504
둥	-10.3508
▁차별	-10.3509
▁임진왜란	-10.3515
j	-10.3515
_3	-10.3519
▁아카데미	-10.3522
500	-10.3526
욕	-10.3527
연구소	-10.3528
▁않게	-10.3528
지구	-10.3532
▁재배	-10.3533
ang	-10.3533
▁바이에른	-10.3534
▁도전	-10.3537
▁미국과	-10.3543
▁집권	-10.3544
▁유형문화재	-10.3545
▁진주	-10.3547
▁일본인	-10.3548
▁문신	-10.3549
江	-10.3551
▁새롭게	-10.3554
▁구원	-10.3555
▁인도네시아	-10.3556
멜	-10.3558
었지만	-10.3561
조는	-10.3561
和	-10.3562
▁없다는	-10.3565
컬	-10.3566
▁홋카이도	-10.3567
▁개입	-10.3568
▁트	-10.3568
촉	-10.3573
史	-10.3573
▁통산	-10.3573
▁포기	-10.3574
▁성공을	-10.3575
▁1937	-10.358
▁출시되었다	-10.3582
▁유일하게	-10.3583
▁명예	-10.3584
▁원형	-10.3586
▁고문	-10.359
▁영웅	-10.3593
▁태조	-10.3594
▁탈퇴	-10.3596
▁크로아티아	-10.3597
▁장덕	-10.3597
▁건립	-10.3598
▁34	-10.3599
▁얼굴	-10.3599
▁서울대학교	-10.3602
▁제공한다	-10.3604
▁전까지	-10.3606
▁독특한	-10.3606
▁사실이	-10.361
▁내용이	-10.3611
▁것이라는	-10.3612
힌	-10.3614
▁발견되었다	-10.3614
▁곡은	-10.3614
논	-10.3615
▁마무리	-10.3615
▁골을	-10.3617
▁공무원	-10.3617
▁일어나	-10.3618
▁유사	-10.3623
룬	-10.3625
핵	-10.3626
▁챔피언	-10.3628
프로	-10.3629
▁한글	-10.363
▁대체로	-10.3631
켄	-10.3631
▁구별	-10.3631
▁사용된	-10.3638
▁주기	-10.3641
▁의심	-10.3646
▁곳으로	-10.3648
▁변경되었다	-10.3657
계획	-10.3659
▁복무	-10.3661
▁명칭	-10.3661
▁조선의	-10.3666
시스	-10.367
▁코치	-10.3671
▁모형	-10.3671
▁원년	-10.3671
▁내렸다	-10.3671
스테	-10.3671
▁교육을	-10.3675
▁헤이	-10.3676
▁올려	-10.3677
▁보관	-10.3677
▁단백질	-10.3681
▁e	-10.3686
▁유행	-10.3688
▁실수	-10.3688
▁주관	-10.369
▁오토	-10.369
▁있음을	-10.3692
▁가로	-10.3693
▁자리에	-10.3693
▁주둔	-10.3697
서는	-10.3697
▁다르게	-10.3698
▁사례	-10.3702
▁금메달을	-10.3704
당했다	-10.3705
▁상태에서	-10.3705
200	-10.3711
▁경성	-10.3714
번째로	-10.3718
▁번의	-10.3718
옹	-10.3719
▁어깨	-10.3726
使	-10.3727
▁훈	-10.373
▁생긴	-10.3731
권의	-10.3731
▁이르러	-10.3739
▁서명	-10.374
메이	-10.374
▁접한다	-10.374
당시	-10.374
▁이름의	-10.3743
교통	-10.3746
▁1935	-10.3752
▁처벌	-10.3753
▁마이	-10.3754
▁일부는	-10.3755
▁후보로	-10.3757
▁빠져	-10.3762
▁터미널	-10.3762
▁입력	-10.3762
▁검은	-10.3765
바르	-10.3766
위원	-10.3767
종의	-10.3769
라며	-10.377
▁감독을	-10.3773
▁조건	-10.3775
으면서	-10.3777
하므로	-10.378
▁상당한	-10.3783
▁축제	-10.3784
▁아시안	-10.3786
▁중에는	-10.3795
베리	-10.3796
▁장면	-10.3799
▁이라크	-10.3799
▁값	-10.38
▁경제적	-10.3802
▁들고	-10.3802
퇴	-10.3803
▁십	-10.3806
▁보물	-10.3807
▁해양	-10.3807
▁공동체	-10.381
점이	-10.3822
▁질량	-10.3824
▁나타나는	-10.3825
조의	-10.3827
▁주력	-10.3835
▁사마	-10.3839
▁제작된	-10.3841
▁순간	-10.3844
석을	-10.3844
▁다소	-10.3846
▁숨	-10.3847
▁사람들의	-10.385
▁어려운	-10.3853
라면	-10.3854
▁In	-10.3857
▁맡은	-10.3857
▁조선총독부	-10.3859
▁받았으며	-10.3859
▁지역으로	-10.3859
▁자극	-10.386
원은	-10.3861
번의	-10.3862
▁아카	-10.3862
▁불과	-10.3863
이닝	-10.3864
▁목표	-10.3864
▁부상을	-10.3868
▁연안	-10.3868
▁이름이다	-10.387
▁1951	-10.387
▁맞아	-10.3875
▁병합	-10.3875
▁파크	-10.3877
▁홍보	-10.3878
▁덴	-10.3879
▁순서	-10.3883
▁의도	-10.3884
▁중심지	-10.3885
▁부분을	-10.3889
▁때의	-10.389
▁뉴질랜드	-10.3896
▁만들고	-10.3897
수로	-10.3904
▁소스	-10.3904
▁넘	-10.3905
▁로스앤젤레스	-10.3905
모리	-10.3906
네스	-10.3907
고속도로	-10.3907
▁목록이다	-10.3908
▁아우	-10.391
om	-10.3911
▁for	-10.3912
▁너	-10.3913
▁빅	-10.3913
녕	-10.3915
▁속한	-10.3916
▁인상	-10.392
대신	-10.3926
63	-10.3926
▁기둥	-10.3926
ho	-10.3927
▁빛	-10.3932
▁방해	-10.3933
▁설립되었다	-10.3935
▁따로	-10.3937
▁변형	-10.3938
▁참여했다	-10.3939
▁힐	-10.394
▁후손	-10.3941
받아	-10.3945
▁들어갔다	-10.3945
짐	-10.3946
▁이루어	-10.3949
▁혐의로	-10.3949
▁특징	-10.395
였지만	-10.3954
뿐	-10.3957
▁혜	-10.3963
▁세력을	-10.3965
▁컵	-10.3971
▁가까이	-10.3971
▁참석	-10.3972
▁루이스	-10.3976
▁통상	-10.3977
▁함락	-10.3977
스턴	-10.3978
▁기회를	-10.3978
▁편이다	-10.3979
▁일본에	-10.3979
▁소비	-10.398
행정	-10.3982
▁일본어	-10.3983
li	-10.3984
▁확률	-10.3985
▁히로	-10.3988
▁챔피언십	-10.3989
털	-10.399
▁일부를	-10.3992
▁번호는	-10.3994
▁성적을	-10.3998
▁나온다	-10.4007
▁사령관	-10.4012
▁유대인	-10.4017
밖에	-10.4022
억원	-10.4024
▁수도원	-10.4024
▁불렸다	-10.4024
▁당초	-10.4024
▁층	-10.4033
no	-10.4036
▁여러가지	-10.4037
▁강조	-10.4038
▁상태로	-10.404
▁만든다	-10.4046
제의	-10.405
▁참전	-10.4053
▁복원	-10.4063
91	-10.4066
▁이르렀다	-10.4068
性	-10.407
등의	-10.4072
▁당선	-10.4073
▁특정한	-10.4077
▁천주교	-10.408
학생	-10.4081
지면서	-10.4084
▁이른다	-10.4084
▁제공하는	-10.4085
천군	-10.4091
▁테러	-10.4098
▁깨	-10.4099
▁조절	-10.4099
▁명을	-10.4103
▁말레이시아	-10.4103
항공	-10.4103
▁인구가	-10.4103
▁스페인의	-10.4105
▁쉬	-10.4106
▁세인트	-10.4106
▁중학교이다	-10.4109
어는	-10.411
▁떠났다	-10.4114
▁행렬	-10.4122
▁참조	-10.4122
▁규모의	-10.4124
▁김일성	-10.4128
▁현역	-10.4128
▁갖추고	-10.4128
▁사운드	-10.4131
▁일어나는	-10.4138
▁현지	-10.4139
▁절반	-10.414
▁때문	-10.4141
낭	-10.4146
▁아이돌	-10.4149
▁지위를	-10.4149
▁지금은	-10.4151
面	-10.4153
▁악기	-10.4154
▁여왕	-10.4155
느	-10.4157
▁가게	-10.4158
▁시카고	-10.4159
▁만족	-10.4161
▁초기의	-10.4165
▁1933	-10.4168
ist	-10.417
▁사용했다	-10.4171
타운	-10.4173
▁혼인	-10.4175
▁스타일	-10.4175
▁37	-10.4178
▁대비	-10.4179
▁핀	-10.4185
▁남겼다	-10.4187
▁공산주의	-10.4187
▁연간	-10.4189
률	-10.419
▁넣어	-10.4191
▁입장을	-10.4191
제는	-10.4192
쌍	-10.4197
▁기여	-10.4199
론을	-10.4204
ig	-10.4206
활	-10.4209
記	-10.4212
趙	-10.4212
구역	-10.4213
▁증거	-10.4214
定	-10.4215
▁제일	-10.4217
지마	-10.4224
▁거듭	-10.4224
▁못하는	-10.4225
昌	-10.4227
▁위로	-10.4228
▁지니고	-10.4229
▁보았다	-10.423
▁농구	-10.4236
▁유한	-10.4238
▁1932	-10.424
理	-10.4242
▁저녁	-10.4245
▁헬	-10.4245
▁알리	-10.4248
▁장악	-10.4249
별로	-10.4253
▁신설	-10.4257
ell	-10.4262
▁흘러	-10.4265
▁엄청난	-10.4278
▁수상하였다	-10.4279
텔	-10.4281
▁광장	-10.4284
민족	-10.4285
▁초에	-10.4287
▁종이	-10.4288
▁병사	-10.4289
계를	-10.4293
사키	-10.4294
one	-10.4295
▁세이	-10.4295
ma	-10.4298
▁사용하였다	-10.4298
敎	-10.4302
대상	-10.4302
▁레드	-10.4304
▁이들을	-10.4306
▁1924	-10.4307
▁위원장	-10.4307
▁불만	-10.4309
▁리더	-10.4309
셰	-10.4315
所	-10.4317
▁도모	-10.4319
▁임기	-10.432
철도	-10.4322
▁징역	-10.4326
▁대화	-10.4326
▁브라	-10.4329
▁고향	-10.4331
해진	-10.4332
▁박정희	-10.4333
▁저술	-10.4335
▁1900	-10.4336
▁프리드리히	-10.4341
▁쪽	-10.4341
▁부분이	-10.4343
▁학습	-10.4344
▁자본	-10.4346
▁공중	-10.4348
▁남쪽으로	-10.4349
▁도구	-10.4349
▁모습	-10.435
▁대공	-10.435
▁인천광역시	-10.435
▁수영	-10.4351
▁협상	-10.4357
善	-10.4359
▁이로써	-10.436
▁1928	-10.4361
ment	-10.4362
▁상대적으로	-10.4363
▁벌어진	-10.4372
▁로드	-10.4373
-4	-10.4374
▁올림픽에	-10.4378
▁곽	-10.4379
▁대한민국에서	-10.4389
▁동기	-10.439
▁효과	-10.4392
▁You	-10.4394
▁되는데	-10.44
까지의	-10.4404
▁비트	-10.4404
▁홈런	-10.4406
司	-10.4407
▁항의	-10.441
▁뿌리	-10.441
▁노벨	-10.4412
▁가치가	-10.4412
▁제외	-10.4414
▁왕이	-10.442
렛	-10.4425
대표	-10.4426
▁맞서	-10.4427
▁앞으로	-10.4429
▁해도	-10.443
▁가문의	-10.443
▁일정한	-10.4431
▁화성	-10.4432
바이	-10.4434
동맹	-10.4434
되	-10.4435
▁동양	-10.4436
▁논리	-10.4436
▁완공	-10.4436
간다	-10.4443
다른	-10.4447
이드	-10.4447
▁성을	-10.4448
▁부담	-10.4452
군으로	-10.4454
▁인쇄	-10.4455
▁1934	-10.4457
▁근처에	-10.4457
▁않기	-10.446
▁페르시아	-10.4463
▁여섯	-10.4471
▁장애	-10.4475
역으로	-10.4481
하다고	-10.4481
▁설치류	-10.4482
尹	-10.4483
▁재학	-10.4492
▁아랍	-10.4492
▁전쟁에서	-10.4492
▁사람들을	-10.4496
토스	-10.4498
▁왕비	-10.4498
▁벼슬	-10.4505
▁진행되었다	-10.4508
▁기록은	-10.4517
▁나아가	-10.4519
▁놀	-10.4523
▁않지만	-10.4524
▁De	-10.4526
▁먼	-10.4528
하이	-10.453
▁나타낸다	-10.4533
▁워	-10.4535
▁감시	-10.4539
▁리처드	-10.4541
▁본부	-10.4542
▁매장	-10.4544
小	-10.4545
▁단편	-10.4545
▁나카	-10.4548
▁전직	-10.4549
▁날개	-10.4554
▁상대식	-10.4563
▁운영하고	-10.4563
▁사전	-10.4563
박쥐	-10.4563
▁보유하고	-10.4564
▁상주	-10.4565
古	-10.4569
▁개성	-10.457
지대	-10.4572
ay	-10.4573
▁세상을	-10.4573
▁전면	-10.4574
▁영화는	-10.4575
▁구성원	-10.4577
▁취소	-10.4579
com	-10.4582
▁구입	-10.4584
▁석유	-10.4586
▁와서	-10.4587
▁떠	-10.4588
스토	-10.4591
▁서식지	-10.4592
▁미니	-10.4594
켈	-10.4595
▁전철	-10.4596
▁영향	-10.4598
공업	-10.4599
장군	-10.4601
▁눈에	-10.4602
▁답	-10.4603
▁업	-10.4603
▁선전	-10.4603
▁성능	-10.4606
▁인공	-10.4606
▁프로이센	-10.4606
▁점이	-10.4606
머리	-10.4608
▁책임	-10.4609
▁그리하여	-10.4612
▁잡아	-10.4618
▁수여	-10.4619
오는	-10.4619
또는	-10.4619
틸	-10.4621
데스	-10.4623
▁주식회사	-10.4626
▁초등학교	-10.4627
▁것이라	-10.4631
▁필요가	-10.4633
▁돈을	-10.4634
드라마	-10.4635
▁에드워드	-10.4637
▁코미디	-10.4639
▁학자	-10.4643
▁원인이	-10.4643
▁동일	-10.4645
▁오른	-10.4648
▁사태	-10.4648
에선	-10.465
에만	-10.4651
▁만한	-10.4652
연맹	-10.4653
장치	-10.4661
▁기회	-10.4661
▁이전에는	-10.4663
▁정수	-10.4664
▁베이	-10.4666
활동을	-10.4674
▁모임	-10.4675
▁타율	-10.4679
▁생존	-10.4684
▁시내	-10.4687
▁소속으로	-10.4689
▁멀리	-10.4689
▁출력	-10.4689
법은	-10.469
▁태국	-10.4692
▁케이	-10.4694
▁지형	-10.4694
▁사업을	-10.4694
▁중력	-10.4697
▁위원	-10.47
▁동안에	-10.4701
소리	-10.4701
▁곳이다	-10.4701
휘	-10.4703
브라	-10.4706
▁콩	-10.4706
▁고리	-10.4709
▁오직	-10.4709
▁메이지	-10.471
▁샤를	-10.4711
▁재건	-10.4711
▁장교	-10.4711
▁포트	-10.4713
有	-10.4715
▁차지	-10.4717
▁동원	-10.472
▁빌보드	-10.4722
▁자녀	-10.4722
토리	-10.4723
▁낭	-10.4733
▁노부	-10.4735
▁폐쇄	-10.4737
▁결승전	-10.4743
▁참여하였다	-10.4746
학회	-10.4746
혁명	-10.4747
▁효과를	-10.4749
▁그것이	-10.475
▁기호	-10.4751
▁출범	-10.4754
톨	-10.4759
▁웨스트	-10.476
▁나타났다	-10.4764
편성	-10.4764
▁학살	-10.4766
관으로	-10.4766
▁행동을	-10.4767
권이	-10.477
▁말하는	-10.477
▁꿈	-10.4774
▁입고	-10.4778
▁절차	-10.4778
▁임의의	-10.478
단을	-10.4781
수의	-10.4781
▁대장	-10.4781
▁문명	-10.4782
▁특징이다	-10.4782
▁판결	-10.4784
島	-10.4784
▁이른바	-10.4786
ab	-10.4789
▁크리스	-10.479
▁허락	-10.4796
▁완전한	-10.4798
▁얻을	-10.4801
ton	-10.4802
▁상위	-10.4803
이었지만	-10.4808
▁작동	-10.4808
▁닥터	-10.4811
▁섬의	-10.4813
est	-10.4814
▁만다	-10.4816
▁아름다운	-10.4818
▁체코	-10.4829
▁이루는	-10.4829
▁세대	-10.483
▁감염	-10.4832
’(	-10.4836
▁조선시대	-10.4841
▁재개	-10.4845
▁양쪽	-10.4851
통신	-10.4852
▁DVD	-10.4855
▁뛰고	-10.4858
▁완료	-10.4862
▁아동	-10.4863
▁설득	-10.4868
▁델	-10.4875
캐	-10.4875
▁기소	-10.4877
▁갈색	-10.4877
▁지점	-10.4878
_	-10.4878
▁아파트	-10.488
▁상속	-10.488
▁이로	-10.4882
▁아래에	-10.4883
▁기본적으로	-10.4884
세로	-10.4885
넬	-10.489
▁발생하는	-10.489
▁그에	-10.4894
▁심각한	-10.4895
馬	-10.4898
宮	-10.4898
▁여겨진다	-10.4898
▁한국인	-10.49
▁42	-10.4901
▁말이	-10.4901
▁역할	-10.4901
▁세부	-10.4905
▁유럽의	-10.4907
▁아테네	-10.4908
시로	-10.4909
혹	-10.491
했	-10.4913
▁아키	-10.4914
족의	-10.4915
시의	-10.4919
환경	-10.4923
▁좌우	-10.4924
▁약속	-10.4924
▁주간	-10.4926
▁있었다고	-10.4929
▁이후에도	-10.4933
▁카이	-10.4935
▁뛰	-10.4935
▁추천	-10.4942
▁저지	-10.4946
▁성분	-10.4949
▁중인	-10.495
▁파악	-10.4955
(14	-10.4956
▁형식으로	-10.496
▁밀려	-10.496
Q	-10.4961
▁선박	-10.4964
▁벗어나	-10.4971
뢰	-10.4971
▁1931	-10.4972
▁집행	-10.4974
시티	-10.4976
▁진격	-10.4981
▁좋지	-10.4982
_7	-10.4987
▁흰	-10.4991
성에	-10.4992
둔	-10.4994
즘	-10.4997
▁접촉	-10.4997
등을	-10.5
▁책임을	-10.5005
ex	-10.5008
▁아들인	-10.502
인조	-10.5021
▁보여준다	-10.5023
ub	-10.5023
me	-10.5024
함과	-10.5024
▁전역	-10.5025
▁역사를	-10.5026
▁군단	-10.5027
▁시스템을	-10.5028
▁나뉘어	-10.5033
▁압	-10.5035
▁앙	-10.5039
▁작품이	-10.5039
ag	-10.504
▁받아들여	-10.504
라도	-10.5045
코프	-10.5046
▁킹	-10.5046
▁위치를	-10.5049
▁환자	-10.505
▁가수이다	-10.505
之	-10.5052
▁사망한	-10.5053
▁말로	-10.5054
량을	-10.5055
▁없을	-10.5057
▁일으켰다	-10.5058
▁출	-10.5059
▁보기	-10.5059
▁시위	-10.5059
라인	-10.5066
되거나	-10.5068
▁차지하고	-10.5071
▁올라가	-10.5075
대에	-10.508
▁진학	-10.5081
▁지지를	-10.5081
파의	-10.5081
렐	-10.5084
▁살인	-10.5084
됨	-10.5085
▁애플	-10.5085
四	-10.5087
▁역임하였다	-10.5089
堂	-10.5091
▁비용	-10.5092
▁참가했다	-10.5093
▁뮌헨	-10.51
▁전송	-10.5101
ill	-10.5104
하여야	-10.5106
▁가슴	-10.5106
▁1921	-10.5106
▁전쟁에	-10.5116
▁압력	-10.5117
▁청주	-10.5119
▁폴리	-10.5122
▁변수	-10.513
▁카라	-10.5131
▁않으면	-10.5133
▁사형	-10.5135
▁인용	-10.5136
▁쿠데타	-10.5136
▁퇴	-10.5137
▁조지아	-10.5146
▁펜	-10.5149
마루	-10.515
ers	-10.5151
▁갑자기	-10.5153
트를	-10.5156
▁연구에	-10.516
▁영국군	-10.5161
▁후원	-10.5165
▁복합	-10.5166
▁하기도	-10.5167
▁전동차	-10.5169
▁1925	-10.5172
▁공화국의	-10.5173
낼	-10.5175
▁1923	-10.5177
▁매일	-10.5178
▁보병	-10.5178
▁사랑을	-10.5179
▁트레	-10.5182
▁서술	-10.5186
▁발명	-10.5188
▁가설	-10.5189
▁DNA	-10.519
▁감사	-10.5192
▁1922	-10.5193
▁이상이	-10.5194
▁패션	-10.5194
▁깊이	-10.5196
▁열차가	-10.5196
부사	-10.5198
시각효과	-10.5202
▁최우수	-10.5202
치를	-10.5203
중에	-10.5221
▁승려	-10.5221
▁손상	-10.5222
張	-10.5225
▁그곳에서	-10.5228
▁부하	-10.523
▁서쪽으로	-10.5231
휴	-10.5232
▁청구	-10.5233
▁대상이	-10.5236
우는	-10.5237
디스	-10.524
▁미래	-10.5241
▁초기에	-10.5244
▁소식을	-10.5245
▁사냥	-10.5248
▁칠레	-10.5248
▁AFC	-10.525
조에	-10.5253
ong	-10.5256
慶	-10.5257
▁옷	-10.5259
으로도	-10.5262
되게	-10.5267
▁역에서	-10.5268
▁품	-10.5275
▁관여	-10.5277
▁상실	-10.5279
不	-10.5281
BS	-10.5284
▁단순한	-10.5285
라스	-10.5285
mo	-10.5287
등이	-10.5287
▁겐	-10.5288
▁죽음	-10.5292
선수	-10.5294
▁태종	-10.5294
▁의존	-10.5296
▁중학교	-10.5297
맹	-10.5298
▁크로	-10.5298
국민	-10.5299
▁일부가	-10.5301
되었기	-10.5302
배우	-10.5303
▁추구	-10.5304
▁잭슨	-10.5308
장에	-10.5312
하에	-10.5313
▁우려	-10.5315
▁그래픽	-10.5319
崔	-10.5321
▁Q	-10.5322
▁즉시	-10.5326
▁전신	-10.5327
▁대표로	-10.5327
에서부터	-10.5328
푼	-10.5331
저우	-10.5331
개가	-10.5332
▁하에	-10.5334
▁미국인	-10.5336
▁임무	-10.5336
대장	-10.534
▁높	-10.5341
▁상을	-10.5342
금을	-10.5345
▁사제	-10.5349
상과	-10.5353
소설	-10.5353
ast	-10.5359
▁명령을	-10.536
▁문제에	-10.5361
했었다	-10.5362
▁플라	-10.5366
지방법원	-10.5366
▁동방	-10.5371
▁게다가	-10.5373
사령부	-10.5374
▁선출되었다	-10.5375
▁촉	-10.5375
▁아래와	-10.5377
▁음성	-10.538
▁플레이어	-10.5382
▁사람으로	-10.5382
▁호는	-10.5384
있	-10.5385
▁추기경	-10.5391
▁비행기	-10.5393
の	-10.5394
▁1929	-10.5399
▁폭탄	-10.5401
▁주장한다	-10.5402
▁영주	-10.5402
▁동쪽으로	-10.5403
od	-10.5404
di	-10.5405
▁탄핵	-10.5408
윈	-10.5408
▁서울시	-10.541
▁타격	-10.541
랭	-10.5411
韓	-10.5412
식이	-10.5412
승을	-10.5413
▁사람들에게	-10.5415
▁g	-10.5415
▁이적하였다	-10.5416
▁부르	-10.5419
▁고속	-10.5422
▁혼합	-10.5423
▁달려	-10.5424
리우스	-10.5425
▁비상	-10.5426
데이	-10.5428
▁파워	-10.543
▁신청	-10.5433
체를	-10.5435
▁권력을	-10.5437
▁운영하는	-10.5438
pe	-10.5438
▁사양	-10.5439
▁없게	-10.5446
▁르	-10.5448
▁지구의	-10.5452
▁이민	-10.5455
▁프랑스어	-10.5457
▁일으켜	-10.5461
▁대회에	-10.5471
사에서	-10.5472
da	-10.5473
▁전한	-10.5476
▁통계	-10.5478
▁재임	-10.5479
▁디스크	-10.5481
▁걸친	-10.5486
▁라는	-10.5488
▁부친	-10.549
호가	-10.5491
▁따서	-10.5498
後	-10.5498
心	-10.5508
버그	-10.5509
발전	-10.5511
해졌다	-10.5512
▁자라	-10.5512
▁가상	-10.5516
구를	-10.5519
▁의미하는	-10.552
략	-10.552
▁데에	-10.5521
代	-10.5522
▁갖는다	-10.5522
▁사건으로	-10.5522
▁호주	-10.5525
▁피부	-10.5525
河	-10.5529
▁보고서	-10.5532
▁발표된	-10.5538
▁연락	-10.5538
부문	-10.5539
▁신부	-10.5539
법이	-10.554
▁조선시대의	-10.5542
▁민중	-10.5543
▁확산	-10.5547
학을	-10.5548
▁참가한	-10.5549
▁개설	-10.5551
▁주택	-10.5553
▁고속도로	-10.5556
▁적도	-10.556
▁슬	-10.5561
▁지위	-10.5567
▁방식을	-10.5567
▁포인트	-10.5568
▁섬식	-10.5573
▁브라운	-10.5579
em	-10.5584
▁궁전	-10.5586
▁발언	-10.5588
▁조치	-10.5591
▁종류	-10.5591
▁로봇	-10.5594
도서관	-10.5594
▁인물로	-10.5596
▁하여금	-10.5597
▁Co	-10.5599
▁레오	-10.5602
▁올리	-10.5604
역을	-10.5609
▁플레이오프	-10.5611
▁55	-10.5611
ud	-10.5613
▁베스트	-10.5616
▁문헌	-10.5618
열차	-10.5619
▁단독	-10.5622
▁그녀가	-10.5623
삭	-10.5625
▁판사	-10.5631
▁세상	-10.5632
TA	-10.5633
▁동일본	-10.5636
▁민주주의	-10.5641
감독	-10.5643
▁업무를	-10.5644
▁이끌었다	-10.5646
보이	-10.5647
주를	-10.5647
▁HD	-10.5648
▁부분은	-10.5648
코스	-10.5648
▁희망	-10.5649
▁성과	-10.5649
▁원인	-10.5652
▁헌	-10.5654
▁목성	-10.5654
만원	-10.5655
계에	-10.5658
▁관련이	-10.5659
▁도쿄도	-10.566
▁습격	-10.5662
잠	-10.5666
▁터널	-10.567
▁기록되어	-10.5675
▁분해	-10.568
잉	-10.568
▁이기	-10.5691
▁처형	-10.5692
괴	-10.5694
▁미리	-10.5694
▁배경으로	-10.5697
▁유통	-10.5698
▁1907	-10.5699
▁상당	-10.57
컨	-10.5701
▁39	-10.5702
먹	-10.5711
▁그리스도	-10.5712
▁상황을	-10.5716
▁계통	-10.5718
▁지었다	-10.5719
▁본격적으로	-10.5724
시험	-10.5726
▁일종의	-10.5726
NA	-10.5732
▁기록하며	-10.5733
▁베네치아	-10.5734
▁주장을	-10.5735
▁싱가포르	-10.5741
▁선포	-10.5741
▁만들기	-10.5742
▁뒷	-10.5742
▁라이트	-10.5744
▁특징을	-10.5745
▁주소	-10.5749
ha	-10.5752
닉	-10.5754
▁복잡한	-10.5754
▁연평균	-10.5759
▁조건을	-10.5759
▁동경	-10.5762
▁도쿠가와	-10.5762
▁붙여	-10.5766
▁총선	-10.5771
淸	-10.5771
▁검찰	-10.5776
▁지속적으로	-10.5778
’,	-10.5782
▁있으므로	-10.5783
▁한정	-10.5783
▁스키	-10.5788
▁녹색	-10.5794
지며	-10.5797
관이	-10.5803
ve	-10.5803
인들의	-10.5806
▁바이러스	-10.5808
▁수소	-10.5809
▁골든	-10.5813
▁최대의	-10.5814
▁단선	-10.5815
없는	-10.5816
▁보이지	-10.5817
▁바위	-10.5817
드라	-10.5817
드리	-10.582
▁숫자	-10.5824
▁높아	-10.5825
▁돌아와	-10.5827
▁구매	-10.5829
▁속의	-10.5829
▁김영	-10.5831
▁우수	-10.5832
킬	-10.5832
▁주목	-10.5832
▁그려져	-10.5833
▁연결되어	-10.5835
▁여겨	-10.5835
우드	-10.5838
▁주연	-10.584
▁전술	-10.5841
▁위에서	-10.5842
▁1926	-10.5844
▁BBC	-10.5847
▁남녀	-10.5849
▁특별히	-10.5853
▁개방	-10.5853
▁?)	-10.5853
▁의지	-10.5853
▁아라	-10.5855
스코	-10.586
▁알고리즘	-10.586
▁바람	-10.5862
ow	-10.5862
▁창당	-10.5862
▁출간	-10.5864
▁종목	-10.5864
▁해야	-10.5868
▁1927	-10.5869
St	-10.5871
▁언덕	-10.5873
국제	-10.5874
정도	-10.5875
▁그리스어	-10.5876
▁논쟁	-10.5876
됨에	-10.5876
▁문을	-10.5879
▁연습	-10.5882
▁입단하였다	-10.5882
장에서	-10.5883
▁촌	-10.5883
▁편찬	-10.5883
▁노리	-10.5887
전선	-10.5888
▁밝혀졌다	-10.5888
▁구성하는	-10.5889
사랑	-10.5893
세력	-10.5899
자유	-10.59
▁포함되었다	-10.59
▁마음을	-10.5901
▁묵	-10.5903
▁요코하마	-10.5911
▁계속해서	-10.5912
차례	-10.5913
▁발굴	-10.5916
2%	-10.5917
▁검토	-10.5917
▁맺	-10.5917
方	-10.5922
▁부르기도	-10.5924
▁물을	-10.5928
어서	-10.5929
▁마쓰	-10.5929
▁전투기	-10.5931
▁별도의	-10.5933
▁등급	-10.5939
제국	-10.5945
▁이재	-10.5947
▁최근에는	-10.5949
▁피터	-10.5951
▁힙합	-10.5955
과정	-10.5955
▁48	-10.5957
▁메리	-10.5958
▁권리를	-10.5959
전자	-10.596
▁밝혀	-10.596
▁조상	-10.5962
▁그들을	-10.5968
▁전작	-10.5971
▁1912	-10.5971
▁보여주는	-10.5971
칙	-10.5974
▁Ch	-10.5974
필드	-10.5977
재위	-10.5977
bo	-10.5977
▁유럽에서	-10.5978
der	-10.5978
▁이외의	-10.598
▁수단	-10.598
ity	-10.5981
▁못한다	-10.5982
답	-10.5982
▁유래	-10.5986
타로	-10.5986
▁나고야	-10.5988
부분	-10.5995
▁불가능	-10.5996
ci	-10.6
▁유물	-10.6005
▁맨체스터	-10.6008
中學校	-10.6011
▁핫	-10.6014
▁법정	-10.6016
백만	-10.6016
ome	-10.6016
▁원수	-10.6018
▁몸을	-10.6019
▁숙종	-10.6026
▁일원	-10.6028
▁클래식	-10.6031
뇌	-10.6031
리와	-10.6031
▁방법은	-10.6032
▁명칭을	-10.6034
▁가량	-10.6035
▁전투를	-10.6036
▁조카	-10.6037
▁추가로	-10.6037
앤	-10.6039
▁인터뷰에서	-10.6041
▁물리학	-10.6041
ass	-10.6043
▁있	-10.6043
▁보상	-10.6049
▁정조	-10.6051
▁갖게	-10.6054
프리	-10.6057
劉	-10.6058
▁테스트	-10.6059
인과	-10.6061
▁업체	-10.6062
▁소멸	-10.6063
▁북아메리카	-10.6065
▁진영	-10.6068
▁부부	-10.6068
▁혈	-10.6072
▁소집	-10.6075
등급	-10.6078
ate	-10.6078
겸	-10.6078
▁대통령은	-10.6079
▁대구광역시	-10.6083
작전	-10.6083
공학	-10.6083
▁소화	-10.6087
▁포함하는	-10.6088
師	-10.6088
▁의문	-10.6089
▁형사	-10.6091
▁수십	-10.6091
중인	-10.6095
▁조선인	-10.6097
뒤	-10.6099
信	-10.6101
학원	-10.6102
▁인생	-10.6103
▁노선을	-10.6104
▁견해	-10.6105
▁강요	-10.6106
▁골키퍼	-10.6108
▁써	-10.6109
主	-10.6109
▁했는데	-10.6109
▁김구	-10.611
▁자국	-10.6113
▁발전을	-10.6115
▁+	-10.6115
▁마법	-10.6116
▁경력	-10.6117
미국	-10.6117
수록	-10.6118
마을	-10.6118
佛	-10.6119
▁라고	-10.6121
▁전반	-10.6125
▁계층	-10.6125
▁밝은	-10.6126
▁섬에	-10.6137
十	-10.614
▁전해	-10.6141
▁역은	-10.6142
▁자금	-10.6143
▁징	-10.6148
▁분쟁	-10.6148
▁찬성	-10.6148
▁트레이드	-10.6148
함수	-10.6149
▁모습이	-10.6149
▁시작했고	-10.6151
▁캠퍼스	-10.6152
▁부속	-10.6152
▁120	-10.6158
▁호소	-10.6158
▁고유	-10.6161
▁참여한	-10.6165
▁이외에도	-10.6166
▁충분히	-10.6166
▁프리미어리그	-10.6167
▁검색	-10.6168
박물관	-10.617
노스	-10.617
▁SS	-10.6171
▁총독	-10.6171
▁커다란	-10.6173
▁태양의	-10.6173
▁라틴어	-10.6174
비가	-10.6175
▁상처	-10.6178
리고	-10.6182
▁쌀	-10.6183
▁대다수	-10.6192
▁톰	-10.6192
로프	-10.6192
심을	-10.6192
▁심장	-10.6193
▁삶	-10.6193
권에	-10.6195
▁h	-10.6199
▁대통령의	-10.6201
▁축소	-10.6202
▁사원	-10.6203
▁단순히	-10.6204
▁리그에서	-10.6206
▁문제는	-10.6206
▁안동	-10.6209
▁불가리아	-10.621
▁액체	-10.6211
퍼드	-10.6213
▁앨범을	-10.6213
▁프로그래밍	-10.6214
3%	-10.6214
▁화석	-10.6216
▁1905	-10.6218
▁인류	-10.6219
▁차트에서	-10.622
▁그러므로	-10.622
▁고급	-10.6223
年	-10.6223
▁그들	-10.6225
▁손을	-10.6225
보호	-10.6227
공간	-10.6228
京	-10.623
▁주식	-10.6231
▁열리는	-10.6233
▁수술	-10.6239
▁64	-10.6241
▁탄소	-10.6242
주로	-10.6242
▁보이고	-10.6244
구치	-10.6245
룸	-10.6246
▁윈도	-10.6247
▁1917	-10.625
였는데	-10.6251
되어야	-10.6251
▁할아버지	-10.6252
▁아버지가	-10.6255
▁비롯해	-10.6256
全	-10.6259
▁사건은	-10.6259
년부터는	-10.6262
▁광복	-10.6264
에서만	-10.6266
▁형상	-10.6266
▁후속	-10.6269
히로	-10.6269
▁대결	-10.627
자들의	-10.6271
▁흰색	-10.6273
▁승객	-10.6273
▁주석	-10.6276
씨는	-10.628
르트	-10.6282
▁레알	-10.6283
타카	-10.6284
▁논란	-10.6284
▁증언	-10.6284
▁의미로	-10.6288
▁쥐	-10.6289
널	-10.629
▁출연했다	-10.6291
▁등장인물	-10.6293
틱	-10.6293
당한	-10.6295
▁윌	-10.6295
▁보험	-10.6296
▁모바일	-10.6297
▁집필	-10.6301
▁왕실	-10.6302
▁승진	-10.6302
▁교회의	-10.6304
지기	-10.6307
▁동해	-10.6307
▁토론토	-10.6308
만으로	-10.6308
▁탈락	-10.6311
▁마시	-10.6312
「	-10.6313
▁1908	-10.6316
▁순환	-10.632
방식	-10.6323
▁밥	-10.6323
▁방언	-10.6324
▁몬	-10.6326
쇄	-10.633
▁중반	-10.6332
▁WWE	-10.6333
시키	-10.6335
▁장남	-10.6338
▁1906	-10.6338
▁부진	-10.6339
▁홈런을	-10.634
▁미국으로	-10.6342
▁책을	-10.6343
▁일으키	-10.6352
국이	-10.6352
▁정교회	-10.6354
▁자이언츠	-10.6355
부터는	-10.6358
▁맞이	-10.6359
ni	-10.636
и	-10.6363
▁페르	-10.6363
았고	-10.6364
시는	-10.6364
▁임무를	-10.6367
식물	-10.6367
▁담고	-10.637
▁롤	-10.637
▁t	-10.6372
▁사법	-10.6375
▁열매	-10.6377
▁대선	-10.6377
1%	-10.6378
▁개량	-10.6392
▁보이	-10.6393
프레	-10.6393
넨	-10.6399
부로	-10.64
▁주목을	-10.6401
▁집에	-10.6402
▁St	-10.6405
▁출신이다	-10.6406
▁경기가	-10.6406
짓	-10.6407
▁대학원	-10.6408
▁사임	-10.641
▁전문가	-10.641
▁겨우	-10.6414
▁개념을	-10.6415
▁역사가	-10.6416
▁로스	-10.6416
▁영구	-10.6416
▁초반	-10.6417
넌	-10.6418
까지는	-10.6419
▁심판	-10.6419
▁참고	-10.642
▁연산	-10.6422
더스	-10.6427
▁이웃	-10.6428
식은	-10.6435
▁규제	-10.6437
▁그때	-10.6438
▁농민	-10.6438
▁정식으로	-10.6439
▁가이	-10.6441
▁이벤트	-10.6444
▁유형	-10.6448
▁구글	-10.6449
▁부지	-10.6449
체의	-10.645
▁주장하는	-10.6451
▁베이스	-10.6451
▁소위	-10.6452
▁게임을	-10.6455
롬	-10.6455
▁출현	-10.6456
▁활성화	-10.6456
럴	-10.6457
▁어렵다	-10.6459
자로서	-10.6462
▁성공했다	-10.6464
▁계곡	-10.6466
프트	-10.6469
뉴스	-10.647
▁대우	-10.6472
▁국기	-10.6472
▁캐나다의	-10.6475
상으로	-10.6477
▁감각	-10.6479
▁쇠퇴	-10.6481
▁고양이	-10.6482
帝	-10.6482
▁매주	-10.6487
▁본다	-10.649
ian	-10.649
▁롱	-10.6492
▁프레	-10.6492
▁차단	-10.6494
▁다음의	-10.6496
000	-10.6497
▁파이	-10.6497
▁적극적으로	-10.65
禮	-10.65
▁데이	-10.6501
▁개국	-10.6503
얀	-10.6506
▁소련군	-10.6507
▁초기에는	-10.6507
군단	-10.6508
▁야스	-10.651
論	-10.6511
▁노출	-10.6512
_8	-10.6517
▁일련의	-10.6519
하였다고	-10.6519
테스	-10.6521
▁공정	-10.6521
▁신장	-10.6524
▁사자	-10.6525
▁교리	-10.6527
었	-10.6527
▁내지	-10.6528
▁제목	-10.6531
▁수치	-10.6532
▁결승전에서	-10.6533
▁유치	-10.6534
▁남아프리카	-10.6538
▁반대하는	-10.6541
化	-10.6544
▁산소	-10.6553
▁보스턴	-10.6553
▁브레	-10.6563
▁이용할	-10.657
sa	-10.6573
숭	-10.6576
▁수리	-10.6577
▁본선에	-10.6579
▁재단	-10.658
▁김정	-10.6581
하다는	-10.6582
종이	-10.6583
▁용어	-10.6583
▁전쟁의	-10.6584
오스	-10.6584
년경	-10.6584
▁통화	-10.6585
8%	-10.659
▁안내	-10.6592
▁고등	-10.6593
▁액션	-10.6594
ph	-10.6595
4%	-10.6597
▁시사	-10.6597
▁직전	-10.6597
▁주에	-10.6603
▁제도를	-10.6606
▁개체	-10.6614
일간	-10.6617
▁편의	-10.6617
▁물리	-10.662
선거	-10.6621
▁넣	-10.6622
▁원칙	-10.6624
▁산지	-10.6626
연구원	-10.6628
▁정확히	-10.6629
▁전원	-10.6629
▁발휘	-10.663
▁죽자	-10.6632
▁희생	-10.6636
–	-10.6636
▁마주	-10.6638
▁사막	-10.6641
았으며	-10.6643
▁맺고	-10.6644
▁화재	-10.6644
▁후인	-10.6645
а	-10.6652
▁그리스의	-10.6656
▁뮤직비디오	-10.6658
므로	-10.666
▁초청	-10.6663
be	-10.6664
물질	-10.6667
▁영국에서	-10.6669
▁아리	-10.6669
▁발간	-10.667
▁종전	-10.6671
▁북미	-10.6671
▁명단에	-10.6671
장과	-10.6671
장관	-10.6671
▁사찰	-10.6675
▁본명은	-10.6675
쿠스	-10.6676
▁굳	-10.6677
▁아메리칸	-10.6678
브리	-10.6678
▁셰	-10.6681
▁끝내	-10.6681
동물	-10.6691
▁주인	-10.6691
▁죽음을	-10.6693
黃	-10.6696
▁택	-10.6696
▁OS	-10.6698
▁이익	-10.6706
▁본토	-10.6706
시가	-10.6706
조차	-10.6707
▁경남	-10.6708
▁임시정부	-10.6708
▁사람이다	-10.6709
▁주니어	-10.6711
▁상황이	-10.6714
되는데	-10.6717
▁양국	-10.6718
▁없	-10.6719
▁해상	-10.6719
▁차지하였다	-10.6728
▁이어지는	-10.6731
▁히로시마	-10.6731
▁하나가	-10.6732
▁무한	-10.6732
오리	-10.6733
카르	-10.6733
▁속해	-10.6736
▁정부에	-10.6736
▁아버지의	-10.6738
▁방송을	-10.6738
▁자신	-10.6739
▁되기도	-10.6743
▁이행	-10.6744
▁경향이	-10.6747
▁이념	-10.6749
▁러	-10.6756
▁이들이	-10.6756
▁JR	-10.6757
權	-10.6757
구의	-10.6758
▁방송된	-10.6758
▁놓여	-10.6763
ite	-10.6764
羅	-10.6764
▁맺었다	-10.6764
月	-10.6765
것	-10.6765
▁참가하였다	-10.677
▁에스	-10.6774
▁상태를	-10.6775
받	-10.6775
▁열었다	-10.6776
계에서	-10.6777
도르	-10.6778
▁게임이다	-10.6778
▁La	-10.6779
▁이어서	-10.6779
▁왕의	-10.678
▁부분에	-10.6784
▁쿠바	-10.6786
▁행정구역이다	-10.6787
▁기법	-10.6788
▁의견	-10.6788
松	-10.6791
하시	-10.6793
▁김대중	-10.6794
▁모르	-10.6795
▁배포	-10.6796
능력	-10.68
▁영향으로	-10.68
▁타이틀곡	-10.6801
▁허가	-10.6805
로운	-10.6806
낙	-10.6806
陵	-10.6815
▁유비	-10.6817
▁방위	-10.6819
하면서도	-10.6819
▁식품	-10.6821
▁듯	-10.6823
▁지불	-10.6823
per	-10.6824
▁문화재	-10.6824
▁바르셀로나	-10.6826
▁예로	-10.6827
▁띠	-10.6827
▁유전	-10.6828
▁몰	-10.683
▁인디언	-10.6831
▁영조	-10.6831
▁영토를	-10.6831
▁일단	-10.6835
▁타자	-10.6835
▁후에도	-10.6837
▁정면	-10.6839
▁김성	-10.6839
▁양산	-10.6839
겔	-10.6842
▁많았다	-10.6842
▁강등	-10.6846
▁탐	-10.6847
▁대한제국	-10.6849
입니다	-10.685
▁국가들	-10.6853
OS	-10.6853
▁협	-10.6854
▁1904	-10.6855
▁해발	-10.6856
▁산하	-10.6856
孝	-10.6857
▁그려	-10.6861
▁크레	-10.6862
데르	-10.6864
ca	-10.6865
▁접속	-10.6866
▁줄기	-10.6867
▁뒤로	-10.6868
▁스미스	-10.6868
▁테마	-10.687
형으로	-10.6871
▁전형적인	-10.6872
켓	-10.6873
자료	-10.6875
our	-10.6877
자에게	-10.688
▁소방	-10.688
▁구름	-10.6889
▁실천	-10.6889
7%	-10.689
▁그렇다면	-10.6892
▁히틀러	-10.6894
▁피해자	-10.6895
▁주된	-10.6897
권은	-10.6901
▁올린	-10.6901
au	-10.6902
▁구에	-10.6904
▁가시	-10.6905
▁원래는	-10.6905
▁보유	-10.6909
6%	-10.6909
중국	-10.691
▁강하게	-10.691
▁주위	-10.6911
형의	-10.6916
▁어려움	-10.6918
▁정기	-10.6919
▁댄스	-10.692
▁()	-10.6924
▁창간	-10.6924
,000	-10.6925
▁성질	-10.6926
▁좁은	-10.6934
▁이상을	-10.6936
▁서방	-10.6937
리나	-10.6938
▁수석	-10.6939
-15	-10.6941
▁스트	-10.6942
▁유배	-10.6942
▁서일본	-10.6944
마이	-10.6948
▁변신	-10.6949
▁영양	-10.6951
▁명명	-10.6951
려는	-10.6955
지자	-10.6957
습니다	-10.6958
▁잭	-10.6958
▁협정	-10.696
만명	-10.6961
프랑스	-10.6962
▁매체	-10.6964
▁고위	-10.6964
(6	-10.6965
▁웨일스	-10.6966
▁추방	-10.6968
잎	-10.6968
▁복수	-10.6969
▁하우스	-10.6969
士	-10.6969
러스	-10.697
▁크리	-10.6973
▁세계의	-10.6974
▁소속의	-10.6974
▁융	-10.6975
들로부터	-10.6975
▁경고	-10.6976
▁예비	-10.6976
▁교향곡	-10.6977
▁착용	-10.6977
~20	-10.6977
▁끝으로	-10.6977
▁삶을	-10.6978
▁대부분을	-10.6982
단이	-10.6986
▁국방	-10.6988
▁사항	-10.6988
▁상황에	-10.6991
▁주재	-10.6993
▁남아메리카	-10.6994
▁이곳에	-10.6996
▁해협	-10.6998
▁해리	-10.7002
▁입은	-10.7004
▁신고	-10.7005
▁바둑	-10.7006
대학원	-10.701
법으로	-10.701
400	-10.701
티아	-10.7013
▁감독은	-10.7014
▁당시에	-10.7018
층에	-10.7019
▁하와이	-10.7023
▁티베트	-10.7026
▁대칭	-10.7026
▁스티븐	-10.7029
▁Love	-10.7031
同	-10.7033
▁실내	-10.7034
▁앨범은	-10.7038
▁간행	-10.704
▁총재	-10.704
-5	-10.7041
▁그녀를	-10.7041
▁학술	-10.7043
탐	-10.7044
▁분위기	-10.7047
▁나폴리	-10.7048
▁끊	-10.7048
八	-10.7049
▁무인	-10.7049
▁적응	-10.7049
▁옮겼다	-10.705
通	-10.7053
▁물체	-10.7057
위원장	-10.706
통일	-10.7062
되지만	-10.7062
▁머물	-10.707
▁중국에서	-10.7073
▁팬들	-10.7073
▁물고기	-10.7074
▁발매한	-10.7075
▁잡고	-10.7076
▁기기	-10.7076
▁그러	-10.7076
知	-10.7076
비는	-10.7078
드로	-10.7079
▁사유	-10.7079
호선의	-10.7081
Re	-10.7085
▁로마의	-10.7089
▁곳이	-10.7089
▁대법원	-10.7089
▁입사	-10.7089
pa	-10.709
종으로	-10.7091
▁전북	-10.7093
▁사퇴	-10.7093
이스	-10.7093
역사	-10.7097
▁유효	-10.7098
▁재생	-10.7098
▁41	-10.7107
▁포함된다	-10.711
▁예능	-10.7112
▁개인의	-10.7113
▁수컷	-10.7114
▁낸	-10.7115
▁동서	-10.7115
▁총선에서	-10.7118
о	-10.7119
정을	-10.7126
圖	-10.7128
▁김씨	-10.713
구가	-10.7131
▁악화	-10.7131
눈	-10.7133
▁웹사이트	-10.7136
▁후퇴	-10.7138
▁안타	-10.714
▁발발	-10.7145
▁차원	-10.7146
▁1896	-10.7146
▁거리에	-10.7147
리안	-10.7148
▁틀	-10.7152
▁개장	-10.7153
▁코파	-10.7153
▁저자	-10.7156
공주	-10.7156
령을	-10.7157
▁곡선	-10.7157
▁불안	-10.7158
▁세리에	-10.7159
▁프로세서	-10.716
였기	-10.7163
▁취득	-10.7164
건설	-10.7164
▁일어난다	-10.7167
民	-10.7171
▁마케도니아	-10.7172
▁토벌	-10.7172
▁우리나라	-10.7178
▁교구	-10.718
▁밑	-10.7181
▁전체적으로	-10.7183
▁부탁	-10.7185
▁여부	-10.7186
▁근처	-10.7186
▁싸움	-10.7187
▁codice	-10.7189
▁전남	-10.719
▁자매	-10.7192
▁왕조의	-10.7196
▁소송	-10.7198
▁선로	-10.7199
업체	-10.7201
▁접하고	-10.7204
▁잇	-10.7207
▁의혹	-10.7208
▁군수	-10.7208
▁삭제	-10.7208
▁리드	-10.7209
▁웨	-10.721
▁한신	-10.7211
名	-10.7216
▁오류	-10.7221
▁부상으로	-10.7223
▁지붕	-10.7223
內	-10.7224
▁사용하지	-10.7225
▁차지한다	-10.7228
▁중동	-10.7232
시스템	-10.7234
▁부서	-10.7234
▁단순	-10.7243
▁첫째	-10.7243
부장	-10.7244
▁과학적	-10.7246
▁새벽	-10.7248
〈	-10.725
▁코스	-10.725
▁덮	-10.7251
구에	-10.7251
▁진단	-10.7255
吉	-10.7256
▁성격을	-10.7257
▁비판을	-10.7258
▁대량	-10.7258
的	-10.726
▁학사	-10.7261
▁다음날	-10.7264
300	-10.7266
▁쓴다	-10.7267
▁이르기까지	-10.7274
▁삼았다	-10.7274
▁세력이	-10.7274
▁발표되었다	-10.7277
마사	-10.7278
현재	-10.7279
념	-10.728
보험	-10.728
▁자치구	-10.7282
▁주민들	-10.7283
▁독일어	-10.7283
IS	-10.7284
▁잠수함	-10.7284
▁위치에	-10.7288
식의	-10.729
속도	-10.729
▁직무	-10.7291
洪	-10.7293
▁소형	-10.7294
놀	-10.7296
▁사정	-10.7297
일보	-10.7298
▁방법이	-10.7299
▁한일	-10.7301
▁숭	-10.7301
▁행정구역	-10.7303
▁거친	-10.7304
-20	-10.7304
▁부임	-10.7305
▁배열	-10.7305
▁미치	-10.7305
▁공국	-10.7305
▁지향	-10.7307
▁총장	-10.7307
▁재위	-10.7308
▁덜	-10.7315
▁알파	-10.7317
▁내셔널	-10.7318
▁옆에	-10.7319
▁가요	-10.7322
▁켄	-10.7324
아나	-10.7325
▁상호작용	-10.7325
안을	-10.7326
어가	-10.7327
▁현장	-10.7328
▁글로벌	-10.7329
졌으며	-10.7329
▁등판	-10.733
▁다루는	-10.7332
▁흐름	-10.7337
▁페이지	-10.7341
▁국방부	-10.7341
si	-10.7344
▁조승우	-10.7349
▁곧바로	-10.735
▁농촌	-10.7352
소가	-10.7354
▁곡으로	-10.7355
▁미국은	-10.7358
▁신사	-10.7358
식으로	-10.7359
▁달하는	-10.7359
▁뜻이다	-10.736
▁백인	-10.7362
go	-10.7362
×	-10.7363
華	-10.7366
▁평면	-10.7366
▁항해	-10.7367
▁문화재자료	-10.7374
ER	-10.7374
▁코르	-10.7375
前	-10.7377
▁제외하고	-10.7378
▁작품의	-10.7378
▁서인	-10.7379
▁인조	-10.7382
▁콜롬비아	-10.7382
MA	-10.7384
▁800	-10.7388
여자	-10.7389
▁정도이다	-10.7389
어와	-10.739
▁파울	-10.7392
천만	-10.7394
▁사과	-10.7394
차로	-10.7396
▁빌딩	-10.7398
▁격파	-10.7398
상은	-10.7398
▁설립한	-10.7401
하라는	-10.7404
市	-10.7407
▁드라마이다	-10.7407
ess	-10.7407
▁않았지만	-10.7407
탱	-10.7411
협의회	-10.7411
▁지휘관	-10.7416
▁반응을	-10.7417
▁바라	-10.7418
▁삽입	-10.7419
▁가톨릭교회	-10.7425
리의	-10.7426
▁중에서도	-10.7427
▁이루어진다	-10.7429
▁손에	-10.743
▁수록되어	-10.743
리지	-10.7432
▁이성	-10.7433
▁유역	-10.744
처리	-10.7443
렘	-10.7443
▁변화가	-10.7444
속에	-10.7445
분야	-10.7446
▁다룬	-10.7448
▁이시	-10.7451
▁경사	-10.7451
體	-10.7456
ai	-10.7456
▁되었는데	-10.7457
들어	-10.7457
▁재즈	-10.7457
二	-10.7464
▁사격	-10.7468
▁나이에	-10.7468
▁수록곡	-10.7472
▁43	-10.7478
웰	-10.748
▁별로	-10.7481
▁받으며	-10.7482
▁개명	-10.7484
법의	-10.7488
▁페이	-10.7488
▁위대한	-10.7488
▁공학	-10.7488
▁편지	-10.7489
▁맞는	-10.749
▁토마스	-10.7494
다리	-10.7495
ner	-10.7496
▁있어야	-10.7497
孫	-10.7497
ov	-10.7497
▁돌아왔다	-10.7497
▁갈등	-10.75
었을	-10.7502
▁무릎	-10.7505
▁거절	-10.7507
첨	-10.7509
▁플로	-10.7511
▁600	-10.7519
상에	-10.752
▁고등학교이다	-10.7521
▁좋다	-10.7522
함이	-10.7524
▁운송	-10.7525
▁탐사	-10.7527
▁불화	-10.7529
페이	-10.7532
▁가을	-10.7534
▁타임	-10.7536
량은	-10.7537
▁순수	-10.7539
회에	-10.754
▁구사	-10.7541
▁끌	-10.7542
age	-10.7542
▁고안	-10.7543
▁수밖에	-10.7545
▁생애	-10.7546
▁압축	-10.7548
브로	-10.755
▁임신	-10.755
侯	-10.7551
字	-10.7551
▁회색	-10.7557
▁의견을	-10.7557
프는	-10.7557
▁상수	-10.7558
정신	-10.7559
▁방지	-10.756
▁극단	-10.756
훈련	-10.756
상이	-10.7561
▁상태가	-10.7562
▁봉기	-10.7562
▁빅토리아	-10.7563
▁명칭이	-10.7566
▁야마	-10.7567
▁존스	-10.7567
▁주변의	-10.7568
▁마틴	-10.7568
▁레이다	-10.7568
에게도	-10.757
▁명문	-10.7571
▁정치인	-10.7572
페르	-10.7575
들에서	-10.7575
▁계기가	-10.7576
ind	-10.7576
▁회사의	-10.7577
▁마치고	-10.7579
▁44	-10.7579
▁지중해	-10.758
성으로	-10.7584
판을	-10.7587
▁텍사스	-10.7588
▁돌려	-10.759
9%	-10.7591
▁전승	-10.7592
▁영국과	-10.7598
▁사건에	-10.76
▁막기	-10.7603
▁강을	-10.7604
▁딴	-10.7608
物	-10.7609
쿠라	-10.7611
▁담은	-10.7612
▁혁신	-10.7612
쇠	-10.7614
▁세계적인	-10.7614
▁내가	-10.7615
▁복잡	-10.7616
▁말라	-10.7617
물이	-10.7618
_9	-10.7619
▁적극	-10.762
▁일은	-10.7624
트의	-10.7625
헬	-10.7628
▁현상을	-10.7628
▁기본적인	-10.763
▁짐	-10.7632
▁75	-10.764
▁행위를	-10.7645
었기	-10.7646
형이	-10.7646
▁세우고	-10.7647
▁실제로는	-10.7651
년까지는	-10.7651
▁클로	-10.7653
계약	-10.7654
▁중지	-10.7655
▁주요한	-10.7656
▁운항	-10.766
▁늑대	-10.7661
唐	-10.7663
▁자본주의	-10.7664
▁가나	-10.7664
▁연계	-10.7664
▁세워진	-10.7664
▁밖으로	-10.7667
▁돌파	-10.7669
마치	-10.7669
물로	-10.7673
▁태도	-10.7674
▁스승	-10.768
▁발해	-10.7686
▁자신은	-10.7688
▁사기	-10.7689
▁심지어	-10.7691
▁쇠	-10.7692
▁밀라노	-10.7693
▁땅을	-10.7694
▁세금	-10.7695
▁w	-10.7697
▁번호	-10.7697
驛	-10.7697
적으로는	-10.7697
▁스웨덴의	-10.77
▁졸업한	-10.7703
▁입법	-10.7704
▁대해서도	-10.7704
꼬리	-10.7704
이라며	-10.7705
▁46	-10.7706
▁동화	-10.7707
밥	-10.7709
중이다	-10.771
▁이끌	-10.7711
▁사회의	-10.7712
▁관계에	-10.7715
ance	-10.7718
▁클라	-10.7718
▁거둔	-10.7719
▁한강	-10.772
▁가치를	-10.7724
▁선형	-10.7726
▁십자군	-10.7728
▁데이터를	-10.7728
▁Ma	-10.7728
▁주최	-10.773
▁사직	-10.773
▁화이트	-10.7732
위의	-10.7732
▁타워	-10.7733
▁개별	-10.7735
▁메탈	-10.7736
▁일상	-10.774
▁규슈	-10.774
▁하던	-10.7742
지와	-10.7742
▁그라	-10.7743
▁오늘날의	-10.7745
층의	-10.7746
쟁	-10.7747
▁모양으로	-10.7749
▁레이블	-10.7749
▁47	-10.7751
▁또다른	-10.7752
▁충격	-10.7752
▁무시	-10.7753
▁들었다	-10.7753
▁얼	-10.7753
개로	-10.7754
▁종교적	-10.7754
뼈	-10.7756
ide	-10.776
雲	-10.776
▁이어져	-10.7762
▁동반	-10.7763
▁불리	-10.7764
▁블록	-10.7766
▁지방에	-10.7766
▁꾸준히	-10.7769
▁플	-10.777
작가	-10.777
▁1,000	-10.7773
▁도중에	-10.7776
닥	-10.7776
▁억제	-10.7778
▁소관	-10.7778
▁왕가	-10.7779
▁에르	-10.778
됐고	-10.778
▁이론을	-10.7783
▁포함된	-10.7786
▁같	-10.7789
BA	-10.7793
▁체험	-10.7796
▁기능이	-10.7796
▁없었고	-10.7797
▁가족들	-10.7798
▁없었던	-10.78
▁인지	-10.7808
▁시가	-10.7808
▁제자	-10.7809
▁촉진	-10.7809
▁관객	-10.7809
이후	-10.7811
▁요인	-10.7813
합니다	-10.7813
▁페루	-10.7814
성군	-10.7815
▁아마추어	-10.7816
▁지켜	-10.7817
치가	-10.7821
▁아프가니스탄	-10.7821
▁폐지되었다	-10.7822
▁Be	-10.7822
In	-10.7822
▁리이다	-10.7823
▁많	-10.7824
에너지	-10.7824
▁이곳에서	-10.7825
▁식량	-10.7828
分	-10.7828
▁까지	-10.7833
▁수백	-10.7836
크는	-10.7838
▁종사	-10.784
▁개척	-10.784
▁나타난	-10.7841
▁투쟁	-10.7841
▁캘리포니아주	-10.7845
▁최종적으로	-10.7846
▁세조	-10.7846
들이다	-10.7847
▁자식	-10.7847
렸고	-10.7847
▁모습으로	-10.7848
▁등장한	-10.785
▁고객	-10.7854
▁독점	-10.7855
▁선생	-10.7856
▁없지만	-10.7856
노프	-10.7856
ive	-10.7858
▁면에서	-10.7858
▁기용	-10.786
▁강도	-10.786
▁말기	-10.7863
▁바닥	-10.7863
▁k	-10.7865
▁내리	-10.7866
▁영혼	-10.7869
▁투구	-10.787
전문	-10.7874
▁이종	-10.7875
▁주변에	-10.7877
▁판정	-10.788
▁주문	-10.788
받고	-10.7881
▁찍	-10.7884
하지는	-10.7885
▁결과로	-10.7885
어의	-10.7885
대대	-10.7885
▁운동에	-10.7888
▁건물은	-10.7888
▁재료	-10.7889
▁획득하였다	-10.7891
▁주지	-10.7891
▁수반	-10.7892
▁경제학	-10.7893
▁비슷	-10.7894
법원	-10.7895
ba	-10.7895
▁조항	-10.7896
▁영화를	-10.7898
▁돌아	-10.7899
柳	-10.7901
▁구상	-10.7904
廣	-10.791
▁붙어	-10.791
표를	-10.7911
▁서쪽으로는	-10.7912
▁아들이다	-10.7913
▁올해의	-10.7913
▁드러나	-10.7916
▁약간의	-10.7917
▁집을	-10.7917
▁스탈린	-10.7918
▁알렉산더	-10.7927
▁들여	-10.793
▁전해진다	-10.793
▁진실	-10.7931
周	-10.7931
▁시내버스	-10.7932
▁농장	-10.7933
▁상원	-10.7933
▁정권을	-10.7933
▁미분	-10.7934
▁관계는	-10.7935
▁삼아	-10.7935
▁평등	-10.7936
▁탁	-10.7936
▁동쪽으로는	-10.7936
호의	-10.7936
▁전체를	-10.7938
▁소비자	-10.7938
ina	-10.794
land	-10.7942
▁오다	-10.7944
▁스카이	-10.7944
鎭	-10.7944
▁이정	-10.7947
六	-10.7949
▁매각	-10.7949
▁대학교의	-10.795
▁연호	-10.7951
▁1911	-10.7952
▁발생한다	-10.7953
뇨	-10.7953
중심	-10.7955
흘	-10.7956
테르	-10.7958
▁기관차	-10.7959
▁수도권	-10.7959
체계	-10.796
포트	-10.7961
▁결의	-10.7961
▁왕위	-10.7963
목에	-10.7967
▁액	-10.7968
▁맞춰	-10.7971
▁이용하는	-10.7971
▁알바니아	-10.7971
자원	-10.7973
▁셋째	-10.7975
▁흉	-10.7979
▁사도	-10.798
▁소요	-10.798
▁히가시	-10.7982
네이	-10.7982
▁대성당	-10.7983
기능	-10.7984
▁포로	-10.7984
자들을	-10.7988
vi	-10.799
▁목소리	-10.799
개혁	-10.7992
단은	-10.7992
▁그래프	-10.7993
▁사촌	-10.7995
▁부호	-10.7995
▁명으로	-10.7996
▁뼈	-10.8001
▁컨	-10.8003
EC	-10.8006
▁살았다	-10.8006
▁영화의	-10.8006
▁라이벌	-10.8006
▁일곱	-10.8008
▁왕족	-10.8008
▁자체가	-10.8009
▁남쪽으로는	-10.8009
下	-10.8013
▁바꾸	-10.8014
▁봉해졌다	-10.8015
▁광산	-10.8018
집단	-10.8019
▁특허	-10.8021
타르	-10.8022
▁포크	-10.8022
重	-10.8022
▁실력	-10.8023
600	-10.8023
▁파키스탄	-10.8024
▁명시	-10.8024
▁북쪽에	-10.8027
▁교수로	-10.8032
ak	-10.8033
▁원하는	-10.8035
▁토너먼트	-10.8035
▁독자	-10.8037
▁기부	-10.8037
해져	-10.8038
랜	-10.8044
▁쌓	-10.8046
▁철거	-10.8046
▁요미우리	-10.8048
▁못해	-10.8051
▁분산	-10.8051
▁빙	-10.8052
▁멸종	-10.8052
대부	-10.8052
▁비슷하다	-10.8054
▁구체적으로	-10.8057
-7	-10.8058
산성	-10.8063
▁복사	-10.8067
운동을	-10.8068
▁다르	-10.8072
▁망원경	-10.8073
▁바깥	-10.8074
▁IC	-10.8074
▁상영	-10.8075
do	-10.8079
▁중구	-10.8081
▁사건의	-10.8082
▁얻게	-10.8083
▁야당	-10.8083
석이	-10.8085
▁국장	-10.8086
▁신라의	-10.8086
주의를	-10.8088
▁죽고	-10.8089
트가	-10.8089
▁오버	-10.8089
▁약탈	-10.8089
이거나	-10.8091
▁골드	-10.8091
▁인근에	-10.8092
九	-10.8092
▁선물	-10.8092
▁법적	-10.8093
▁종족	-10.8096
ti	-10.8097
▁흐르는	-10.8098
인으로	-10.8099
제품	-10.81
진을	-10.8101
▁로즈	-10.8104
▁지나지	-10.8106
▁영지	-10.8106
당은	-10.8107
▁문화적	-10.8109
▁집에서	-10.8109
▁탄압	-10.811
하였을	-10.8111
▁졸업했다	-10.8114
▁아티스트	-10.8116
검사	-10.8118
▁주체	-10.8119
▁성종	-10.8119
▁못하게	-10.8121
風	-10.8123
라이트	-10.8124
황제	-10.8125
ary	-10.8127
▁마쓰다이라	-10.8127
▁덕분에	-10.8129
▁추적	-10.813
▁히트	-10.813
ice	-10.8131
▁묘소	-10.8131
생활을	-10.8131
▁하드	-10.8134
주의자	-10.8135
時	-10.8136
art	-10.8138
▁돌아온	-10.8138
▁설치되었다	-10.8142
▁역사는	-10.8143
▁대동	-10.8146
▁빵	-10.8146
▁이어졌다	-10.815
당의	-10.815
▁만났다	-10.8152
▁희곡	-10.8153
체제	-10.8153
▁구성된다	-10.8157
▁증상	-10.8158
▁모델로	-10.816
▁제주도	-10.816
▁회로	-10.8167
▁아니었다	-10.8167
▁빌리	-10.8168
▁내장	-10.8169
▁사이를	-10.8169
SS	-10.8173
▁거기에	-10.8174
단에	-10.8174
▁유고슬라비아	-10.8174
서원	-10.8176
▁토론	-10.8178
▁퍼져	-10.8178
▁지내고	-10.8179
▁오케스트라	-10.818
▁서독	-10.8182
▁소규모	-10.8182
ap	-10.8182
守	-10.8184
-18	-10.8185
▁시간에	-10.8186
▁서기	-10.8186
▁주어진	-10.8188
▁코너	-10.8191
체가	-10.8192
▁크루	-10.8193
텍	-10.8194
▁1909	-10.8196
▁주와	-10.8197
▁불리며	-10.8197
the	-10.8199
▁수감	-10.8199
▁활약하고	-10.82
▁걷	-10.8201
유키	-10.8202
▁홈페이지	-10.8203
독일	-10.8204
▁차지하는	-10.8206
보드	-10.8208
AR	-10.8209
oc	-10.8209
▁일환으로	-10.8211
▁일으킨	-10.8212
▁소리를	-10.8213
▁알려	-10.8213
▁차체	-10.8215
ip	-10.8215
▁조별	-10.8215
▁선거구	-10.8219
▁후반에	-10.8219
▁반환	-10.8222
ue	-10.8224
▁역전	-10.8224
▁획득했다	-10.8225
▁웅	-10.8225
▁하천	-10.8225
▁면적	-10.8226
▁없기	-10.8227
ty	-10.8227
▁세계를	-10.8228
씨의	-10.8228
▁An	-10.823
▁냈다	-10.8233
하겠다고	-10.824
▁관점	-10.8241
▁이하의	-10.8242
▁색깔	-10.8242
▁후기의	-10.8243
▁우수한	-10.8243
▁멜	-10.8243
▁고기	-10.8244
차전에서	-10.8244
프라	-10.825
▁x	-10.8251
▁전향	-10.8253
▁먹는	-10.8253
때문에	-10.8254
▁상태에	-10.8254
선과	-10.8256
분교	-10.8257
▁않았던	-10.8257
▁도시는	-10.826
▁파티	-10.826
▁웨이	-10.8261
시를	-10.8262
▁모토	-10.8263
▁지원하는	-10.8268
▁이치	-10.8268
▁흥행	-10.8275
▁큐	-10.8278
대와	-10.828
트와	-10.8281
▁말해	-10.8282
▁먹는다	-10.8283
▁크기가	-10.8284
▁풍부한	-10.8285
▁용어는	-10.8285
▁양의	-10.8286
조를	-10.8287
▁지원한다	-10.8288
경찰서	-10.829
▁시절에	-10.8292
▁드러내	-10.8292
▁아르메니아	-10.8296
▁바람에	-10.8296
▁의미가	-10.8301
▁진술	-10.8302
▁타이틀을	-10.8304
모양	-10.831
▁에너지를	-10.831
이지	-10.831
▁히데	-10.831
▁탑승	-10.8311
▁때문이었다	-10.8318
▁대학에서	-10.8318
▁조종	-10.8318
花	-10.8323
▁판매량	-10.8323
▁아나	-10.8327
sh	-10.8332
▁공개되었다	-10.8332
▁음악가	-10.8335
▁호흡	-10.8335
社	-10.8336
▁서경	-10.8336
▁하다가	-10.8337
▁공통	-10.834
殿	-10.8341
▁부품	-10.8341
CC	-10.8341
▁지정되어	-10.8342
▁말하며	-10.8343
▁한나라당	-10.8344
▁민족주의	-10.8346
▁경전	-10.8349
ke	-10.8351
▁독자적인	-10.8351
▁후쿠오카	-10.8352
▁김종	-10.8353
▁당해	-10.8353
▁수준의	-10.8353
형은	-10.8353
▁신뢰	-10.8354
왕이	-10.8355
-16	-10.8358
▁행복	-10.8358
▁곳은	-10.8359
▁인기가	-10.8359
▁권한을	-10.836
하우스	-10.836
▁추가되었다	-10.836
▁진나라	-10.8362
▁출연하였다	-10.8362
▁자회사	-10.8363
▁우익	-10.8363
▁대만	-10.8369
▁스테	-10.837
선으로	-10.8371
론은	-10.8381
800	-10.8381
▁가담	-10.8383
▁오디션	-10.8386
▁일치	-10.8386
단으로	-10.8388
▁유입	-10.8389
▁제공하고	-10.8392
▁수직	-10.8393
니는	-10.8394
▁가르	-10.8395
재단	-10.8398
▁리눅스	-10.8399
▁타입	-10.84
▁납치	-10.8401
ial	-10.8402
▁법안	-10.8404
▁이날	-10.8405
▁대지	-10.8405
갔고	-10.8406
▁약물	-10.8407
▁되었으나	-10.8407
▁–	-10.8407
▁모래	-10.8407
여성	-10.8409
▁블	-10.841
▁맛	-10.841
▁근육	-10.8411
▁킬	-10.8411
寧	-10.8413
▁레벨	-10.8414
▁동독	-10.8417
▁원자력	-10.8418
▁적어도	-10.8419
▁추락	-10.8419
▁지역이	-10.8423
▁얻기	-10.8423
▁친일	-10.8425
(3	-10.8426
▁돔	-10.8428
포스	-10.8429
하였기	-10.8431
▁대학의	-10.8432
▁이탈	-10.8437
▁아스	-10.8439
▁산악	-10.8439
▁오리지널	-10.844
보고	-10.8442
룩	-10.8443
TS	-10.8444
業	-10.8444
像	-10.8444
부와	-10.8445
▁남쪽에	-10.8449
祖	-10.8449
▁사람에게	-10.8451
▁고교	-10.8451
▁가쓰	-10.8454
▁성과를	-10.8454
▁래	-10.8455
▁건축물	-10.8456
▁랩	-10.8458
▁1895	-10.8461
▁대전광역시	-10.8463
강에	-10.8464
兵	-10.8467
▁박근혜	-10.847
▁반사	-10.8471
▁프랑크	-10.8471
▁법인	-10.8472
ron	-10.8473
▁여객	-10.8473
▁계획이	-10.8473
방법	-10.8474
▁주류	-10.8475
▁반면에	-10.8477
▁커버	-10.8479
AL	-10.8481
▁기병	-10.8482
공신	-10.8483
ica	-10.8483
▁아니고	-10.8486
▁간섭	-10.849
▁여성의	-10.8496
동으로	-10.8497
▁독재	-10.8499
▁처음에	-10.8499
che	-10.8499
ー	-10.8504
부르크	-10.8506
▁곤충	-10.8506
▁유인	-10.8506
▁물러나	-10.8506
▁한국에서	-10.8507
▁선임	-10.851
▁예방	-10.8511
▁증기	-10.8518
▁뽑	-10.8518
리스트	-10.8521
▁잃고	-10.8522
▁필요로	-10.8523
▁방정식	-10.8524
명과	-10.8525
▁랭킹	-10.8525
順	-10.8526
▁도움이	-10.8527
국은	-10.8527
▁간에	-10.8528
ung	-10.853
▁먹이	-10.853
▁지표	-10.8532
▁소득	-10.8532
▁아래의	-10.8533
▁편곡	-10.8533
▁환승	-10.8533
▁음반이다	-10.8534
▁걸려	-10.8535
▁국민의	-10.8535
劇	-10.8536
▁클	-10.8536
▁원시	-10.8538
닛	-10.8539
▁귀환	-10.8539
▁공룡	-10.8539
▁믿음	-10.854
▁독립운동	-10.8541
▁내놓	-10.8543
▁시를	-10.8543
|	-10.8544
▁대회이다	-10.8545
▁두번째	-10.8547
▁공격수	-10.8554
▁음원	-10.8556
▁선두	-10.8556
靑	-10.8559
▁아울러	-10.8563
▁기타리스트	-10.8564
독립	-10.8565
▁거대	-10.8572
宋	-10.8572
죠	-10.8573
▁대서양	-10.8573
▁집회	-10.8573
겠다고	-10.8574
▁입증	-10.8574
▁침해	-10.8574
듯	-10.8576
▁두려워	-10.8577
▁플레	-10.8582
관은	-10.8582
▁박쥐	-10.8583
▁별자리	-10.8585
▁시청	-10.8585
▁끈	-10.8587
졸	-10.8588
▁정통	-10.859
▁곳을	-10.859
衛	-10.8591
▁해제	-10.8593
▁엠	-10.8593
▁당사자	-10.8594
▁교역	-10.8604
▁구간이	-10.861
▁나갔다	-10.8613
▁다음으로	-10.8613
▁애국	-10.8613
▁공식적인	-10.8615
▁소재지	-10.8616
IC	-10.8618
▁수상자	-10.8618
立	-10.8618
▁구리	-10.862
▁입었다	-10.8622
철학	-10.8625
리어	-10.8627
▁약화	-10.8627
▁루트비히	-10.8628
▁짜	-10.8628
▁영광	-10.8631
▁당했다	-10.8637
▁포유류	-10.8637
▁중국어	-10.8643
▁건의	-10.8644
▁늘어	-10.8644
▁칼리지	-10.8645
▁유산	-10.8645
▁육성	-10.8646
(13	-10.8648
▁엘리	-10.8648
▁산화	-10.8652
전이	-10.8652
이라면	-10.8653
▁옆	-10.8654
▁스타크래프트	-10.8656
▁51	-10.8657
▁합계	-10.8658
▁뿐이다	-10.866
▁항목	-10.866
바시	-10.866
end	-10.8661
▁브라질의	-10.8663
헤이	-10.8667
진이	-10.8672
▁인도의	-10.8673
‘	-10.8676
▁몸길이	-10.8679
▁동굴	-10.8681
기지	-10.8683
木	-10.8683
▁개업	-10.8688
▁하드웨어	-10.8688
▁작품에	-10.8689
▁아사	-10.869
▁좌익	-10.869
▁출전하여	-10.8694
▁공간을	-10.8694
▁겪	-10.8695
▁적색	-10.8697
▁크기는	-10.8698
국장	-10.8698
▁보이며	-10.8699
시민	-10.8703
▁빨리	-10.8708
▁황후	-10.8709
▁데뷔했다	-10.8711
컴	-10.8711
▁우리가	-10.8716
아키	-10.8716
▁간단한	-10.8717
▁졸업하였다	-10.872
▁석사	-10.8721
▁1913	-10.8721
▁부른	-10.8722
▁담당하는	-10.8724
▁유닛	-10.8725
▁유키	-10.8725
▁존슨	-10.8727
▁곱	-10.8728
로서는	-10.8729
▁DJ	-10.8732
되었다고	-10.8732
▁신칸센	-10.8735
▁이사회	-10.8737
α	-10.8737
▁책은	-10.8739
▁꾸	-10.8742
▁음모	-10.8742
▁후쿠	-10.8743
시와	-10.8745
피스	-10.8747
▁규모가	-10.8753
▁비잔티움	-10.8753
▁송시열	-10.8753
▁사우스	-10.8756
년만에	-10.8757
▁다이묘	-10.8758
▁설이	-10.8758
▁토머스	-10.8759
▁직선	-10.876
▁부동산	-10.8762
관계를	-10.8763
콤	-10.8764
▁퀸	-10.8768
▁항공사	-10.8769
비스	-10.8771
▁여신	-10.8772
▁포항	-10.8774
▁얼마나	-10.8778
순위	-10.8779
▁벌였다	-10.8779
▁다니	-10.8779
▁유발	-10.878
▁좌파	-10.8785
현재의	-10.8786
확	-10.8787
▁기반을	-10.8787
번호	-10.8789
▁현종	-10.8791
▁동영상	-10.8792
▁산성	-10.8794
▁대사관	-10.8794
▁컴	-10.8801
퀴	-10.8801
La	-10.8802
주간	-10.8803
웨	-10.8804
민주당	-10.8806
▁빼	-10.8806
▁공동으로	-10.8807
하러	-10.8808
비행	-10.8812
▁공적	-10.8814
▁그랜드	-10.8815
▁re	-10.8815
▁않았으며	-10.8815
▁옹호	-10.8816
▁무용	-10.882
체는	-10.8822
▁제약	-10.8822
▁분화	-10.8823
품을	-10.8824
▁정치가	-10.8825
▁Mo	-10.8826
▁인구의	-10.8837
▁카페	-10.8837
ick	-10.8837
tic	-10.884
▁동아시아	-10.8841
▁개칭	-10.8842
ea	-10.8845
▁생각을	-10.8846
源	-10.8847
▁커피	-10.8848
▁작위	-10.8851
▁방향을	-10.8853
▁브리	-10.8854
▁가야	-10.8857
▁아들이	-10.8858
▁말할	-10.8859
▁구장	-10.8859
cc	-10.8861
▁석방	-10.8861
▁문화를	-10.8862
ep	-10.8863
플레이	-10.8863
구는	-10.8863
태후	-10.8864
▁관심	-10.8864
▁미사	-10.8864
見	-10.8866
RE	-10.8866
▁불리기도	-10.8868
▁찾는	-10.887
▁복구	-10.8871
▁낳았다	-10.8873
드의	-10.8873
았던	-10.8875
▁모양을	-10.8876
▁EP	-10.8877
생산	-10.8878
판이	-10.8878
주와	-10.8881
▁열어	-10.8882
▁파라	-10.8882
▁대회는	-10.8888
▁란	-10.8888
아르	-10.8891
▁가미	-10.8891
▁관심이	-10.8895
▁포맷	-10.8895
서비스	-10.8895
谷	-10.8899
▁콘텐츠	-10.89
▁출입	-10.89
안에	-10.8902
집합	-10.8903
▁무선	-10.8904
▁권위	-10.8905
경찰	-10.8906
▁케이블	-10.8906
▁지연	-10.8911
▁디즈니	-10.8914
▁NHK	-10.8914
▁쪽으로	-10.8914
眞	-10.8918
▁최신	-10.892
▁번뇌	-10.8921
▁1915	-10.8925
▁경로	-10.8925
▁노선이	-10.8926
▁준우승	-10.8927
朝	-10.8928
▁최근에	-10.893
▁가도	-10.8932
▁시호는	-10.8932
▁내용의	-10.8933
▁결심	-10.8933
▁동맹을	-10.8935
▁다양체	-10.8936
▁빚	-10.8937
달러	-10.8937
英	-10.8937
▁크림	-10.8939
▁지름	-10.8939
사인	-10.8942
▁멤버로	-10.8943
▁브로	-10.8944
해왔다	-10.8944
▁미국에	-10.8945
나카	-10.8945
ris	-10.8946
▁시청률	-10.8947
ng	-10.8952
-17	-10.8952
▁휴스턴	-10.8952
▁대대	-10.8952
ence	-10.8953
▁스타디움	-10.8953
▁분야의	-10.8954
세기의	-10.8956
▁지역구	-10.8957
야구	-10.8957
쯤	-10.8957
▁도시를	-10.8958
대교	-10.8958
▁결과적으로	-10.8963
▁엘리자베스	-10.8964
▁코어	-10.8965
ber	-10.8968
진은	-10.8971
홈런	-10.8972
▁다루고	-10.8972
너스	-10.8972
▁흙	-10.8973
▁합동	-10.8974
▁본선의	-10.8974
▁사적	-10.8974
AN	-10.8975
傳	-10.8976
▁중립	-10.8976
▁때마다	-10.8977
▁입대	-10.8978
▁여동생	-10.898
▁과거에	-10.8981
▁회담	-10.8985
▁고베	-10.8986
주기	-10.8988
▁지역에서는	-10.8991
현의	-10.8992
▁시대에는	-10.8992
建	-10.8995
첸	-10.8996
▁화폐	-10.8999
▁공전	-10.9002
▁태자	-10.9004
▁더블	-10.9006
pi	-10.9006
▁중계	-10.9006
이면	-10.9013
▁무관	-10.9014
高等學校	-10.9014
合	-10.9014
묵	-10.9015
▁희극	-10.9016
▁스파이	-10.9017
▁활동에	-10.9017
▁걸어	-10.9017
공격	-10.9022
▁동시	-10.9022
▁점수	-10.9024
▁대표작	-10.9025
▁Th	-10.9029
아리	-10.9031
클레	-10.9034
▁도심	-10.9036
▁(1	-10.9038
▁정부를	-10.904
集	-10.9043
▁노무현	-10.9043
▁이승	-10.9046
▁호남	-10.9048
하라고	-10.9049
파이	-10.9051
▁작전을	-10.9051
▁자유를	-10.9052
▁센트럴	-10.9053
▁강릉	-10.9055
▁내륙	-10.9055
▁데이터베이스	-10.9059
▁스톤	-10.9063
▁별도로	-10.9064
▁리듬	-10.9064
▁i	-10.9067
▁시집	-10.9068
▁아직도	-10.9068
▁만난	-10.9069
▁생각된다	-10.9075
▁느	-10.9079
▁공화당	-10.908
▁Se	-10.9081
▁백성들	-10.9082
▁극복	-10.9083
되던	-10.9084
▁리메이크	-10.9086
▁삼고	-10.9086
▁대항	-10.9088
▁MVP	-10.9091
▁이외에	-10.9092
▁목숨을	-10.9093
ame	-10.9094
▁이끌어	-10.9094
▁여인	-10.9096
歌	-10.9096
▁SF	-10.9096
▁다큐멘터리	-10.9096
시켰고	-10.9096
무늬	-10.9097
▁시계	-10.91
up	-10.9102
▁가능성을	-10.9104
▁받기	-10.9105
▁아트	-10.9107
▁가지게	-10.9111
▁자료를	-10.9112
▁김용	-10.9114
▁있으면	-10.9114
號	-10.9115
▁후계자	-10.9117
▁구간은	-10.9117
사이드	-10.9119
ah	-10.9121
버리	-10.9123
▁52	-10.9125
▁끝나고	-10.9127
ru	-10.9129
▁사무실은	-10.913
OR	-10.9131
▁일찍이	-10.9131
▁대리	-10.9132
AC	-10.9134
▁김동	-10.9137
▁적절한	-10.9139
▁받기도	-10.914
▁앨런	-10.9141
▁65	-10.9142
뤼	-10.9142
조약	-10.9145
▁발효	-10.9145
▁시민들	-10.9147
▁형성된	-10.915
▁영화로	-10.9151
▁물이	-10.9151
▁경북	-10.9155
▁기온은	-10.9157
▁한국에서는	-10.9157
▁필름	-10.9158
▁주장이	-10.9159
▁현대의	-10.916
전기	-10.916
▁l	-10.916
▁이야기가	-10.9163
▁전임	-10.9164
음력	-10.9165
▁국가가	-10.9166
▁본격적인	-10.9166
▁고지	-10.9166
▁심한	-10.9167
bi	-10.9168
▁이명박	-10.9169
사우루스	-10.9169
▁오는	-10.917
▁수호	-10.917
▁샘	-10.917
▁Ro	-10.9172
▁일체	-10.9172
-10	-10.9176
▁디젤	-10.9176
▁현존하는	-10.9178
▁퇴각	-10.9178
득점	-10.9179
▁원나라	-10.918
▁또다시	-10.9184
▁자세	-10.9188
▁To	-10.9189
▁조직의	-10.9189
▁군사적	-10.9189
타임	-10.9189
▁착수	-10.919
▁유기	-10.9191
민주	-10.9196
섰	-10.9198
▁몰락	-10.92
▁시점	-10.9202
▁Le	-10.9203
▁크로스	-10.9203
▁분노	-10.9204
살이	-10.9204
▁유교	-10.9205
▁인텔	-10.9205
▁특성을	-10.9205
꾼	-10.9205
▁여기	-10.9205
감이	-10.9207
▁중앙에	-10.9208
꾸	-10.9208
者	-10.9208
▁경계를	-10.9209
舞	-10.9213
泰	-10.9213
▁그럼에도	-10.9213
행을	-10.9213
이었는데	-10.9215
웠	-10.9216
▁주자	-10.9217
▁유지하고	-10.9217
直	-10.9218
▁남아있다	-10.9219
유럽	-10.922
▁54	-10.922
▁못했고	-10.9221
(5	-10.9221
▁주제로	-10.9222
▁하사	-10.9222
▁거리를	-10.9223
▁약칭	-10.9224
▁예루살렘	-10.9224
ft	-10.9228
▁스페셜	-10.9228
츠키	-10.9229
니카	-10.923
▁자가	-10.9231
▁특급	-10.9233
학부	-10.9233
▁일요일	-10.9234
병을	-10.9235
▁치르	-10.9239
▁대령	-10.924
▁수록된	-10.9241
▁문제점	-10.9241
▁동전	-10.9242
▁히데요시	-10.9243
킷	-10.9243
▁유신	-10.9244
▁국립공원	-10.9244
▁찾	-10.9244
▁우리는	-10.9244
▁간다	-10.9245
▁전류	-10.9245
▁평생	-10.9246
▁향년	-10.9247
▁아이들	-10.9247
체로	-10.9248
▁좌석	-10.9253
▁마친	-10.9253
星	-10.9257
▁나선	-10.9258
▁!	-10.9258
즉	-10.9266
소스	-10.9273
▁통칭	-10.9275
▁묶	-10.9278
ae	-10.9278
▁형식의	-10.9279
년대부터	-10.928
景	-10.9282
IA	-10.9283
IN	-10.9283
ec	-10.9286
▁눈을	-10.9286
▁클래스	-10.9288
▁기단	-10.9289
▁다양	-10.9289
▁활약하였다	-10.9291
▁무사	-10.9292
▁들어온	-10.9293
주의적	-10.9294
▁사면	-10.9295
▁스테이지	-10.9296
MS	-10.9296
적이	-10.9298
▁찾을	-10.9299
▁목록은	-10.9299
ka	-10.93
왔고	-10.9301
▁등도	-10.9303
▁쇼군	-10.9303
▁현급	-10.9304
▁초래	-10.9304
und	-10.9305
▁볼란	-10.9305
주가	-10.9306
美	-10.9307
▁선호	-10.931
基	-10.9311
▁힘이	-10.9312
▁인터페이스	-10.9312
▁추대	-10.9312
분을	-10.9314
마저	-10.9314
▁것이고	-10.9315
▁빛을	-10.9316
▁연애	-10.9318
▁시드니	-10.9318
▁위치하며	-10.9318
▁수익	-10.9319
▁놀이	-10.932
▁자전거	-10.9321
700	-10.933
▁기름	-10.9331
▁넘겨	-10.9332
▁무대에	-10.9333
▁남긴	-10.9333
선언	-10.9338
▁교차로	-10.9338
▁생각했다	-10.9339
족이	-10.9339
▁크기의	-10.9341
▁("	-10.9341
▁말하고	-10.9345
▁납	-10.9347
▁베이스볼	-10.9347
▁표본	-10.9347
▁가득	-10.9352
▁꾀	-10.9354
▁급행	-10.9355
제작	-10.9357
Al	-10.9358
▁활동이	-10.9358
▁합쳐	-10.9361
we	-10.9363
▁가공	-10.9364
BC	-10.9364
하였	-10.9364
▁업데이트	-10.9366
▁관련하여	-10.9366
▁전통적으로	-10.9368
▁배정	-10.9373
▁요구하는	-10.9376
▁경비	-10.9376
▁죽어	-10.9377
역에서	-10.9378
▁지방에서	-10.9379
▁바꾸었다	-10.9384
인간	-10.9384
▁혼자	-10.9387
니다	-10.9388
▁권고	-10.9389
▁나라를	-10.9389
▁1500	-10.9393
▁1916	-10.9397
▁밖의	-10.9398
▁결승	-10.9399
▁말은	-10.94
내는	-10.9401
▁선교	-10.9401
▁자리에서	-10.9403
▁원주민	-10.9405
▁많고	-10.9405
쳤다	-10.9406
▁차례로	-10.9409
▁사용하기	-10.9409
▁한화	-10.9411
音	-10.9411
▁기념물	-10.9412
▁모험	-10.9413
벌레	-10.9414
▁한쪽	-10.9415
▁점은	-10.9416
대한	-10.9417
▁보스	-10.9417
▁저작	-10.9419
석은	-10.9419
▁모음	-10.9419
▁존재를	-10.942
▁복지	-10.9421
▁Sh	-10.9422
▁성벽	-10.9426
▁태어났으며	-10.9427
▁끝났다	-10.9427
▁Al	-10.9427
▁하원	-10.9429
▁56	-10.943
정의	-10.9431
-8	-10.9432
▁발생했다	-10.9432
▁배제	-10.9432
동과	-10.9433
국을	-10.9434
▁성주	-10.9434
▁서서히	-10.9437
아버지	-10.9439
간에	-10.944
▁귀족들	-10.9441
)」	-10.9445
▁패턴	-10.9445
▁멤버들	-10.9447
▁떨어지	-10.9448
▁기록하고	-10.9448
▁커뮤니티	-10.9449
▁스펙트럼	-10.9451
오르	-10.9453
▁압박	-10.9453
형태	-10.9454
▁당대	-10.9455
▁광주광역시	-10.9456
▁사사	-10.9461
▁정의할	-10.9464
▁혜성	-10.9464
▁얼음	-10.9467
안전	-10.9469
▁동구	-10.9473
▁마스터	-10.9473
면을	-10.9473
▁야기	-10.9473
PS	-10.9474
▁두산	-10.9474
▁벗	-10.9475
▁싱글이다	-10.9476
▁중이던	-10.9476
▁사당	-10.9477
▁차남	-10.9478
▁일본에서는	-10.9478
베르크	-10.9482
작품	-10.9483
▁애니	-10.9485
▁열차는	-10.9485
▁찾아가	-10.9486
▁신임	-10.9486
▁샌프란시스코	-10.9486
효과	-10.9487
자키	-10.9487
만은	-10.9488
▁안쪽	-10.9488
▁아나운서	-10.9488
▁배급	-10.9489
▁오빠	-10.9491
▁프로세스	-10.9492
▁훌륭한	-10.9492
대한민국	-10.9493
화학	-10.9495
▁페스티벌	-10.9496
、	-10.9496
랍	-10.9501
▁지목	-10.9502
▁마산	-10.9504
주었다	-10.9506
▁안드로이드	-10.9506
▁언어로	-10.9506
▁라틴	-10.9509
▁좋아하는	-10.9513
▁준공	-10.9514
국사	-10.9514
▁되었다고	-10.9515
▁회원국	-10.9515
▁계획은	-10.9517
▁인물이	-10.952
▁멀	-10.952
교수	-10.9525
즈의	-10.9526
自	-10.9527
▁World	-10.9528
미술	-10.9529
▁활동한	-10.953
▁천문학	-10.9531
▁들어간	-10.9531
作	-10.9532
▁계수	-10.9532
▁제휴	-10.9532
해지고	-10.9532
▁무력	-10.9533
▁입문	-10.9535
곡을	-10.9535
▁학교를	-10.9536
평가	-10.9536
▁입지	-10.9536
▁있음	-10.9538
▁멘	-10.9538
▁것인지	-10.954
▁셋	-10.954
▁인디	-10.954
닫	-10.9541
▁측은	-10.9542
▁데리고	-10.9543
▁프랑스와	-10.9543
ee	-10.9545
▁찾기	-10.9546
▁포르	-10.9546
▁소니	-10.9547
▁미야	-10.9547
▁조기	-10.9553
▁서쪽에	-10.9554
▁인사들	-10.9554
이었기	-10.9555
▁성공적으로	-10.9556
▁스카	-10.9559
복을	-10.9562
▁참가하여	-10.9562
▁전두환	-10.9562
port	-10.9563
▁상대방	-10.9568
▁링	-10.9569
에르	-10.9569
▁통행	-10.957
▁아서	-10.9571
▁가즈	-10.9571
▁모집	-10.9571
녹	-10.9572
▁미나미	-10.9572
▁그곳	-10.9572
니까	-10.9577
▁각국	-10.9579
DA	-10.9579
▁멀티	-10.9581
이면서	-10.9582
▁닌텐도	-10.9582
▁학부	-10.9585
▁엔진을	-10.9585
▁Con	-10.9585
▁발견했다	-10.9586
▁물건	-10.9587
우치	-10.9589
▁오염	-10.9589
▁지휘자	-10.9589
▁튀	-10.9591
▁덧붙여	-10.9592
▁조약을	-10.9593
▁일본은	-10.9593
▁창원	-10.9596
▁디자이너	-10.9598
럽	-10.9598
▁지배를	-10.96
▁홀로	-10.9601
▁러브	-10.9601
▁수요	-10.9605
밤	-10.9606
▁체육	-10.9609
▁포도주	-10.9609
▁개막	-10.961
▁긴급	-10.961
-6	-10.9611
▁도와	-10.9613
tu	-10.9614
▁안양	-10.9614
▁정벌	-10.9615
▁관직	-10.9615
▁애플리케이션	-10.9618
화로	-10.9619
▁가리	-10.9622
▁정신적	-10.9624
▁가져	-10.9626
▁할당	-10.9626
겠다는	-10.963
나리	-10.9631
▁국민당	-10.9631
▁명칭으로	-10.9638
▁코무네	-10.9638
▁끌어	-10.9639
▁운행하는	-10.964
gu	-10.964
▁그동안	-10.9645
▁락	-10.9645
▁건너가	-10.9648
▁49	-10.9649
호에	-10.9649
SA	-10.9649
무역	-10.9649
▁실려	-10.9651
▁자바	-10.9651
▁드래프트	-10.9653
實	-10.9654
▁제작자	-10.9654
▁근거로	-10.9655
▁그중	-10.9656
ix	-10.9656
▁눈물	-10.9657
▁되찾	-10.9658
宣	-10.9659
▁보여주고	-10.9661
▁국가에서	-10.9661
▁옮기	-10.9661
있고	-10.9664
▁원작으로	-10.9665
▁편지를	-10.9666
▁버리고	-10.9666
▁펄	-10.9668
롯	-10.9669
根	-10.9669
▁빗	-10.967
▁전례	-10.967
우라	-10.9671
▁한계	-10.9672
▁능력이	-10.9675
▁인간이	-10.9679
▁아웃	-10.968
▁료	-10.968
FC	-10.968
▁말한	-10.9682
하기에	-10.9682
▁끝이	-10.9683
▁700	-10.9684
▁양도	-10.9685
▁이내	-10.9688
AP	-10.9689
▁회의에서	-10.9689
▁움직임	-10.9689
▁색상	-10.9691
크로	-10.9691
▁꺾고	-10.9695
村	-10.9695
▁월드컵에서	-10.9695
닐	-10.9696
▁그것	-10.9697
▁효과가	-10.9702
쿄	-10.9702
▁관점에서	-10.9702
▁프라	-10.9702
▁인증	-10.9702
▁중심이	-10.9703
▁듀	-10.9706
▁발생하였다	-10.9709
▁바탕	-10.9709
씨가	-10.9711
▁소속사	-10.9712
(2002	-10.9712
▁교전	-10.9714
융	-10.9715
자들에게	-10.9715
▁무료	-10.9716
▁입구	-10.9717
▁뤼	-10.9718
AS	-10.9719
론의	-10.9719
▁덴마크의	-10.972
▁부흥	-10.9721
▁관중	-10.9722
회가	-10.9723
制	-10.9726
▁이르고	-10.9727
▁부처	-10.9727
▁역사적으로	-10.9728
르는	-10.973
▁겸임	-10.973
▁보건	-10.9732
작업	-10.9732
마쓰	-10.9732
▁캠프	-10.9733
▁사령부	-10.9734
SI	-10.9737
령이	-10.9738
▁나라에서	-10.9738
▁왕립	-10.974
▁대왕	-10.9741
경영	-10.9741
▁이익을	-10.9742
▁권한	-10.9744
▁석탄	-10.9744
궤	-10.9746
잘	-10.9746
산군	-10.9748
▁암컷	-10.9748
았	-10.9749
치고	-10.9749
▁테오	-10.9751
류를	-10.9752
▁판타지	-10.9752
ake	-10.9752
▁데뷔전을	-10.9755
承	-10.9757
▁중요하다	-10.976
정은	-10.9761
▁국토	-10.9762
▁노비	-10.9764
▁위기에	-10.9769
▁서적	-10.9769
리그의	-10.9769
▁프랑스군	-10.9778
▁민간인	-10.978
▁시작해	-10.978
수와	-10.978
▁연주자	-10.978
▁여기에서	-10.9781
토르	-10.9783
▁거두	-10.9783
▁지역이다	-10.9783
▁주에서	-10.9785
萬	-10.9788
▁CPU	-10.9789
▁충분한	-10.9789
미디어	-10.979
화와	-10.9792
역이	-10.9798
▁친일인명사전	-10.9798
ley	-10.9803
福	-10.9803
▁가능하며	-10.9807
曹	-10.9809
▁문법	-10.9809
▁분야에	-10.9813
▁사진을	-10.9816
▁훈련을	-10.9817
▁춘	-10.9818
▁on	-10.9819
▁없으나	-10.982
▁분지	-10.9822
▁국군	-10.9823
▁결정했다	-10.9823
▁페리	-10.9826
▁인물이다	-10.9829
사람	-10.9833
하루	-10.9834
野	-10.9835
▁어두운	-10.9835
▁결혼을	-10.9836
▁항일	-10.9839
혔다	-10.9839
▁화합물	-10.9839
▁《》	-10.9839
formula	-10.9841
▁향을	-10.9843
▁영어로	-10.9845
자이다	-10.9845
▁당한	-10.9847
회에서	-10.9847
량의	-10.9848
▁뒤인	-10.9851
▁문인	-10.9851
폴리스	-10.9854
▁성공회	-10.9854
밴드	-10.9855
▁SC	-10.9856
▁보한다	-10.9858
▁가끔	-10.9858
▁소금	-10.986
▁치렀다	-10.9861
▁얻는	-10.9862
▁목적은	-10.9865
▁가질	-10.9865
▁동쪽에	-10.9866
▁산타	-10.9866
동을	-10.9868
계열	-10.9868
▁유언	-10.9869
▁운동이	-10.9869
▁병사들	-10.987
左	-10.9871
▁자유롭게	-10.9872
▁전한다	-10.9873
▁원자로	-10.9874
더라도	-10.9874
▁상태이다	-10.9874
▁공략	-10.9875
▁조류	-10.9876
壽	-10.9876
▁울산광역시	-10.9877
▁맞게	-10.9878
▁관하여	-10.9879
▁독립운동가	-10.9881
康	-10.9882
▁뱀	-10.9882
hPa	-10.9884
▁성서	-10.9884
▁값을	-10.9885
▁아니면	-10.9887
▁마찰	-10.9891
란트	-10.9892
하려면	-10.9892
▁리투아니아	-10.9893
▁주파수	-10.9893
▁전함	-10.9893
▁△	-10.9895
▁막을	-10.9896
▁성립한다	-10.9897
국으로	-10.9898
상에서	-10.9898
커스	-10.9899
▁운반	-10.99
▁은퇴한	-10.99
▁방영되었다	-10.9901
리크	-10.9903
▁주말	-10.9903
적이다	-10.9903
▁입장에서	-10.9904
▁부패	-10.9905
▁제목으로	-10.9905
▁철학자	-10.9907
▁AC	-10.9907
모델	-10.9908
▁여덟	-10.9908
▁예외	-10.9909
▁싶어	-10.9912
▁성의	-10.9917
축구	-10.9917
(2011	-10.9921
그리	-10.9924
*	-10.9926
랴	-10.9927
▁당신	-10.9927
▁꺾	-10.9928
▁앉	-10.9929
톡	-10.9929
준다	-10.9931
▁심사	-10.9931
▁발전에	-10.9934
▁스마트폰	-10.9935
con	-10.9936
▁※	-10.9936
지사	-10.9939
ga	-10.9939
브레	-10.994
▁외계	-10.994
▁경험을	-10.9942
▁심리	-10.9942
▁시간대	-10.9942
▁사가	-10.9944
작용	-10.995
▁성질을	-10.9951
▁연구하는	-10.9953
▁이었다	-10.9953
▁굽	-10.9953
▁특수한	-10.9955
▁포수	-10.9956
▁계열의	-10.9959
▁필라델피아	-10.9966
▁중추원	-10.9967
ier	-10.9972
원숭이	-10.9972
▁자유주의	-10.9974
으므로	-10.9975
▁흐	-10.9975
▁외교관	-10.9976
▁필드	-10.9976
조정	-10.9978
▁대주교	-10.9979
동이	-10.9981
▁지역과	-10.9981
典	-10.9982
▁한동안	-10.9982
▁시와	-10.9983
▁승부	-10.9983
▁대로	-10.9984
▁출구	-10.9985
▁이사장	-10.9986
군사	-10.9989
▁이온	-10.9989
▁동상	-10.9993
е	-10.9994
▁제도의	-10.9995
맛	-10.9995
▁서울에서	-10.9995
▁불가	-10.9996
▁싫어	-10.9996
금융	-10.9996
▁빠지	-10.9998
▁유니	-10.9998
▁왕위를	-11
지면	-11
▁자기장	-11.0002
▁미치는	-11.0005
경을	-11.0006
고종	-11.0007
▁핑	-11.0007
▁않도록	-11.0009
▁조조	-11.0009
▁파동	-11.0009
▁해임	-11.001
▁이세	-11.0011
▁금성	-11.0011
▁선거에	-11.0011
▁게재	-11.0013
▁스파르타	-11.0014
하니	-11.0014
포드	-11.0018
▁대안	-11.0021
우가	-11.0022
▁의석	-11.0024
▁곡이	-11.0024
▁독일에서	-11.0024
▁추격	-11.0025
▁확인할	-11.0025
▁하버드	-11.0026
▁실시된	-11.0028
▁그로	-11.0029
▁수비수	-11.0029
女	-11.003
▁풋볼	-11.003
▁측면에서	-11.0031
편의	-11.0031
▁성직자	-11.0031
▁이토	-11.0032
▁고조	-11.0033
▁창건	-11.0034
▁주어졌다	-11.0034
군에서	-11.0034
▁현상이	-11.0037
▁나타내	-11.0039
▁일로	-11.0039
▁낱말	-11.004
▁머리를	-11.0042
▁목조	-11.0042
기록	-11.0042
mer	-11.0042
▁냉	-11.0043
부에서	-11.0045
▁적을	-11.0046
▁상연	-11.0046
▁MC	-11.0049
▁호칭	-11.0049
적이며	-11.005
기획	-11.005
An	-11.0052
▁도요	-11.0052
▁전진	-11.0053
▁졸	-11.0055
▁진동	-11.0055
▁저명	-11.0056
다르	-11.0056
타는	-11.0059
▁소재로	-11.006
해진다	-11.0061
▁원조	-11.0061
治	-11.0061
▁운동의	-11.0062
▁요소를	-11.0066
▁돌아갔다	-11.0068
▁연고로	-11.0071
▁이수	-11.0073
▁춤	-11.0073
▁발탁	-11.0073
▁공로	-11.0073
▁아니며	-11.0075
났다	-11.0076
▁베타	-11.0076
▁번식	-11.0077
▁사실은	-11.008
▁쳐	-11.008
▁개발을	-11.008
▁인물들	-11.0082
▁파운드	-11.0082
졌지만	-11.0085
▁막대한	-11.0085
ord	-11.0086
▁렌즈	-11.0086
▁기동	-11.0086
▁따르는	-11.0087
▁톱	-11.0091
▁이후부터	-11.0092
▁광역	-11.0092
▁라운드	-11.0092
▁칼리	-11.0094
▁주립	-11.0096
▁초연	-11.0097
▁경력을	-11.01
위가	-11.01
ll	-11.0101
▁구로	-11.0102
정이	-11.0102
▁당선되었다	-11.0104
점으로	-11.0106
세트	-11.0106
▁국정	-11.0107
▁연령	-11.011
▁시대를	-11.0111
낸다	-11.0114
그라	-11.0114
영은	-11.0115
행동	-11.0115
▁빌헬름	-11.0115
▁방식의	-11.0116
▁누구	-11.0117
▁약한	-11.0119
觀	-11.012
콩	-11.0121
▁강경	-11.0123
▁구체적인	-11.0124
▁보잉	-11.0125
▁삼국	-11.0125
▁맡게	-11.0131
▁초창기	-11.0131
보는	-11.0132
▁부르며	-11.0137
파가	-11.0138
▁발매했다	-11.0139
▁과일	-11.0139
▁협의	-11.014
한다면	-11.0141
구로	-11.0141
▁에스토니아	-11.0142
▁가능하게	-11.0143
▁기록에	-11.0143
▁프로그램의	-11.0143
▁체제를	-11.0146
스포츠	-11.0146
파크	-11.0147
戰	-11.0147
자들	-11.015
▁경유	-11.0152
▁역과	-11.0152
詩	-11.0153
면에서	-11.0154
▁군부	-11.0154
-0	-11.0155
▁균	-11.0155
▁집계	-11.0155
▁천연	-11.0156
▁합작	-11.016
▁실패했다	-11.016
▁섬유	-11.0162
▁시작하는	-11.0164
▁줄여서	-11.0166
▁비즈니스	-11.0168
투쟁	-11.0168
▁앨	-11.0169
▁여단	-11.0171
ata	-11.0171
▁죽을	-11.0171
▁전부터	-11.0171
▁동인	-11.0172
▁공채	-11.0176
황후	-11.0177
dy	-11.0177
▁연설	-11.0177
졌는데	-11.0179
▁임명되어	-11.018
▁장안	-11.0181
▁수천	-11.0183
▁강연	-11.0185
▁월간	-11.0185
▁디비전	-11.0186
▁앞면	-11.0187
▁천안	-11.0189
▁해설	-11.0189
▁형식을	-11.0189
보다도	-11.019
CS	-11.019
▁피렌체	-11.019
뷰	-11.0193
▁빠진	-11.0193
웠다	-11.0198
▁물리적	-11.0198
▁신자	-11.0199
▁문화의	-11.02
▁250	-11.0204
신을	-11.0204
▁않았기	-11.0204
▁모방	-11.0204
▁마이크로	-11.0205
貞	-11.0207
나이	-11.0208
▁실업	-11.0213
류의	-11.0213
▁정도가	-11.0215
크스	-11.0216
▁점프	-11.0217
▁김영삼	-11.0219
▁모순	-11.0221
▁군대는	-11.0221
▁포함해	-11.0224
▁토요일	-11.0224
▁생기는	-11.0225
▁My	-11.0225
▁목적을	-11.0227
▁비극	-11.0229
▁화려한	-11.0231
▁따위	-11.0232
▁표지	-11.0233
▁노스	-11.0233
▁사무소	-11.0233
▁정차	-11.0234
▁자격을	-11.0235
여객	-11.0235
▁지금도	-11.0238
▁군대가	-11.0239
▁베네수엘라	-11.0239
▁내는	-11.024
▁FM	-11.0243
▁손실	-11.0243
함대	-11.0244
스에서	-11.0244
▁프로토콜	-11.0245
▁첫번째	-11.0245
臺	-11.0245
수사	-11.0246
▁다음해	-11.0247
▁궁정	-11.0247
ale	-11.025
tor	-11.0252
수도	-11.0253
아시아	-11.0253
▁몰아	-11.0256
~)	-11.0256
▁양주	-11.0257
쳤고	-11.0259
보살	-11.0261
▁극작가	-11.0261
▁발견한	-11.0262
lu	-11.0264
산면	-11.0266
▁속도를	-11.0266
▁중종	-11.0266
▁파리에서	-11.0266
부작	-11.0266
▁서브	-11.0266
▁특유의	-11.0266
전은	-11.0267
ore	-11.0268
▁프로그램은	-11.0268
▁활발한	-11.0268
▁젖	-11.0269
스파	-11.0272
路	-11.0272
▁브라이언	-11.0272
덩	-11.0273
▁수업	-11.0276
▁했다고	-11.0278
▁상인	-11.0279
▁두루	-11.028
▁목포	-11.0281
▁북방	-11.0282
불교	-11.0282
▁사무	-11.0283
쯔	-11.0283
▁짓	-11.0284
▁싸	-11.0284
▁민주화	-11.0284
▁인원	-11.0285
▁쌓아	-11.0286
▁그러자	-11.0286
va	-11.0288
▁형법	-11.0291
▁뒤에는	-11.0292
▁털이	-11.0293
▁뮤	-11.0293
▁궁중	-11.0294
▁요금	-11.0295
q	-11.0296
▁사고로	-11.0297
→	-11.03
▁변화에	-11.0301
▁사료	-11.0302
▁캄	-11.0302
▁생명체	-11.0302
▁성씨	-11.0303
▁상의	-11.0303
外	-11.0304
▁써서	-11.0305
셋	-11.0306
▁180	-11.0306
▁본질	-11.0307
▁독일군	-11.0308
▁중시	-11.0308
▁급제	-11.0309
▁코리아	-11.0312
졌으나	-11.0314
레이션	-11.0314
▁남인	-11.0315
▁세계에	-11.0315
보도	-11.0315
▁현의	-11.0317
▁관습	-11.0319
開	-11.0321
짜리	-11.0322
▁대신에	-11.0327
당을	-11.0329
▁동북	-11.033
Le	-11.0335
▁유일	-11.0335
▁웃	-11.0336
▁대회를	-11.0337
▁영문	-11.0337
▁전제	-11.0337
▁사용하며	-11.0339
화되어	-11.0339
▁내부의	-11.0342
▁성공적인	-11.0343
히코	-11.0344
▁제국이	-11.0344
▁서울대	-11.0348
▁부수	-11.035
▁그림을	-11.0351
▁여론	-11.0351
▁개념은	-11.0352
분이	-11.0352
▁섭정	-11.0357
▁사용해	-11.0359
▁SM	-11.036
▁사용자가	-11.0361
▁살던	-11.0362
▁연속으로	-11.0362
▁아베	-11.0365
▁하였는데	-11.0365
▁화제가	-11.0365
▁급속	-11.0366
▁개발된	-11.037
동의	-11.0372
스톤	-11.0372
즈는	-11.0372
▁선수이자	-11.0373
▁전세계	-11.0374
▁향토유적	-11.0376
▁봉사	-11.0376
▁맞추어	-11.0377
▁잘못된	-11.0377
Ch	-11.0378
▁질환	-11.038
▁무슬림	-11.0381
라디오	-11.0382
▁파트	-11.0384
▁에드	-11.0385
선조	-11.0385
▁시로	-11.0386
▁전투는	-11.0386
▁믿	-11.0386
코드	-11.0386
▁복제	-11.0387
▁시작된다	-11.039
▁이것	-11.0392
▁프랑스는	-11.0394
▁5000	-11.0395
롭	-11.0395
▁발레	-11.0395
▁신흥	-11.0395
▁진정한	-11.0396
▁자산	-11.0396
▁반지	-11.0399
▁부문에	-11.0401
▁우주선	-11.0402
▁탕	-11.0409
▁3000	-11.0412
나르	-11.0413
▁드래곤	-11.0414
▁아이템	-11.0415
▁지어진	-11.0415
짝	-11.0416
▁기술이	-11.0416
▁펼쳐	-11.042
▁인터	-11.0422
무스	-11.0423
▁발견되는	-11.0424
▁바꾸어	-11.0424
니시	-11.0427
▁UN	-11.0429
ight	-11.0429
▁각지	-11.0431
別	-11.0431
▁글씨	-11.0431
▁교차	-11.0433
▁라트비아	-11.0437
▁메시지	-11.0437
▁형태가	-11.0438
▁융합	-11.0438
뜨	-11.044
▁병행	-11.044
▁제작되었다	-11.044
▁조명	-11.0441
▁진정	-11.0442
▁서원	-11.0442
▁일기	-11.0444
▁도덕	-11.0445
▁시게	-11.0445
_10	-11.0452
〉(	-11.0452
▁붙인	-11.0453
이론	-11.0453
공무원	-11.0457
▁생겼다	-11.0457
▁크라	-11.0457
▁낮아	-11.0458
▁시나리오	-11.0459
않	-11.0465
▁바이올린	-11.0465
▁후보에	-11.0465
▁파트너	-11.0467
물의	-11.0471
원에	-11.0471
▁혈액	-11.0472
▁추모	-11.0473
▁조문이다	-11.0475
▁리버풀	-11.0476
노리	-11.0476
듯이	-11.048
SC	-11.0484
▁길이가	-11.0485
▁들어가는	-11.0487
▁중기의	-11.0489
▁쓰이고	-11.0489
업을	-11.0492
▁설립하였다	-11.0493
▁아들을	-11.0494
면적	-11.0497
▁일식	-11.0497
▁연구가	-11.0498
▁알려지지	-11.0498
▁청와대	-11.0499
았으나	-11.0502
포를	-11.0503
利	-11.0503
▁보스니아	-11.0504
▁일족	-11.0506
밭	-11.0506
▁역이	-11.0507
▁이슬람교	-11.0507
▁전투가	-11.0509
▁성공한	-11.0511
운영	-11.0512
▁우루과이	-11.0514
▁둘러싼	-11.0514
▁근접	-11.0516
▁공자	-11.0518
어야	-11.0521
▁균형	-11.0526
▁거슬러	-11.0527
▁세워졌다	-11.0528
▁지키	-11.0528
현에	-11.0528
▁해주	-11.0529
법인	-11.053
▁53	-11.0531
▁묻	-11.0531
▁직장	-11.0531
▁미술관	-11.0531
▁예전	-11.0533
자동차	-11.0533
시절	-11.0534
미가	-11.0534
▁의정부	-11.0536
▁밤에	-11.0539
▁람	-11.0545
▁유해	-11.0546
늘	-11.0546
▁명예의	-11.0546
노동	-11.0546
ost	-11.055
ach	-11.0551
▁규	-11.0553
▁때로는	-11.0553
노부	-11.0554
▁옹	-11.0554
▁인력	-11.0559
▁1890	-11.0559
▁각기	-11.056
▁늘어나	-11.056
▁국적	-11.056
▁충족	-11.0562
▁영화제	-11.0562
寶	-11.0565
▁출시된	-11.0566
▁선종	-11.0567
화는	-11.0567
▁폐위	-11.0568
▁토대로	-11.0568
▁진출하였다	-11.0569
▁툴	-11.0571
▁론	-11.0571
▁승리로	-11.0575
▁피트	-11.0576
▁때때로	-11.0576
▁일원으로	-11.058
qu	-11.0583
호와	-11.0587
▁사물	-11.0588
▁대책	-11.059
▁멸	-11.0592
▁이전까지	-11.0596
▁악마	-11.0596
▁땅에	-11.0597
▁항공모함	-11.0599
▁와중에	-11.0599
당이	-11.0599
테이	-11.0602
臣	-11.0603
▁스페인어	-11.0603
안타	-11.0603
▁히라	-11.0604
▁본인	-11.0606
끼	-11.0607
春	-11.061
語	-11.061
▁슬로바키아	-11.061
▁패전	-11.0612
MI	-11.0613
▁완화	-11.0614
▁언제나	-11.0615
iz	-11.0615
▁도호쿠	-11.0618
▁결과는	-11.0618
▁석조	-11.0618
▁전투에	-11.062
在	-11.0621
0%	-11.0622
▁진군	-11.0624
▁1894	-11.0624
있으며	-11.0627
실로	-11.0627
▁팽창	-11.0628
▁역임	-11.063
따	-11.0631
▁문재인	-11.0632
▁관계로	-11.0634
▁검증	-11.0637
▁동메달을	-11.0639
▁정류장	-11.0647
카타	-11.0649
▁뻗어	-11.0649
▁주지사	-11.0649
ium	-11.065
사무소	-11.0651
▁토르	-11.0651
▁떠난	-11.0653
▁협약	-11.0654
5,000	-11.0657
▁후한	-11.0659
令	-11.0661
▁바꿔	-11.0661
▁규격	-11.0662
▁게임은	-11.0662
▁작고	-11.0663
▁아벨	-11.0664
▁구조의	-11.0669
▁사신	-11.0669
▁통로	-11.0669
▁간부	-11.067
▁황해도	-11.0674
▁재능	-11.0675
방향	-11.0677
▁시스템은	-11.0678
▁이처럼	-11.0678
▁침몰	-11.0678
▁감독이다	-11.0679
▁미스	-11.068
▁영감을	-11.0682
▁→	-11.0682
▁내내	-11.0685
책임	-11.0685
▁왕으로	-11.0686
▁풀어	-11.0688
▁스케이팅	-11.0689
으로서는	-11.0689
智	-11.0695
▁고무	-11.0695
▁짓고	-11.0695
▁얻고	-11.0698
▁규정하고	-11.0698
슬러	-11.0699
▁도메인	-11.0701
▁의병	-11.0701
ran	-11.0701
만장	-11.0702
타니	-11.0703
尙	-11.0704
▁맞지	-11.0706
▁죽이고	-11.0707
협정	-11.0709
▁시기의	-11.071
조로	-11.0712
▁하나를	-11.0712
판은	-11.0712
정당	-11.0712
▁목격	-11.0713
어스	-11.0713
▁고통	-11.0717
▁출판사	-11.0717
▁근처의	-11.0717
▁기상	-11.0718
▁맡았으며	-11.0718
▁성남	-11.0721
왕은	-11.0721
▁고가	-11.0721
▁가면	-11.0722
▁트럭	-11.0723
▁플로리다	-11.0723
(2010	-11.0724
▁사단법인이다	-11.0725
▁못할	-11.0725
▁삭	-11.0726
▁은메달을	-11.0727
▁부통령	-11.0729
▁유대	-11.0731
▁트랜스	-11.0733
▁르네상스	-11.0734
▁미만	-11.0739
▁넘어가	-11.0739
曲	-11.074
럭	-11.0741
조건	-11.0741
▁조건으로	-11.0741
▁이씨	-11.0743
▁오디오	-11.0743
▁정찰	-11.0743
▁민족문제연구소	-11.0746
▁서재필	-11.0746
큰	-11.0747
▁기재	-11.0747
▁밴	-11.0747
단위	-11.0748
▁앉아	-11.0752
▁조금씩	-11.0753
▁지냈으며	-11.0753
투자	-11.0754
▁1898	-11.0756
빠	-11.0757
▁동지	-11.0758
종합	-11.0759
Ne	-11.0761
이어서	-11.0761
▁우연히	-11.0764
▁오리	-11.0765
▁발전소	-11.0766
짜	-11.0768
良	-11.0769
吳	-11.0769
▁얘기	-11.0769
▁아기	-11.077
▁개최되었다	-11.077
▁번영	-11.0773
둘	-11.0774
세에게	-11.0774
▁이루었다	-11.0776
ric	-11.0776
▁시작했으며	-11.0776
ob	-11.0776
▁버전은	-11.0777
나라의	-11.0777
▁달러를	-11.0777
▁소행성	-11.0779
나스	-11.0779
og	-11.0781
▁가와	-11.0781
▁법학	-11.0784
▁일화	-11.0785
▁58	-11.0786
▁속도로	-11.0786
▁관통	-11.0788
끼리	-11.0791
▁나섰다	-11.0792
▁캐스팅	-11.0792
학의	-11.0793
▁언어를	-11.0795
ster	-11.0796
펀	-11.0796
▁거점	-11.0797
▁마이너	-11.0798
▁당국	-11.0799
▁계단	-11.0799
클라	-11.08
▁밀리	-11.08
파를	-11.0803
주년을	-11.0805
음이	-11.0808
▁작위를	-11.0808
▁야간	-11.0809
▁효종	-11.0811
▁출연한	-11.0812
니와	-11.0812
▁시에서	-11.0814
▁훼손	-11.0815
됐으며	-11.0816
▁전체의	-11.0817
▁식사	-11.082
▁사이드	-11.082
▁북부에	-11.0823
▁건물이	-11.0824
▁입성	-11.0824
권과	-11.0826
▁출입구	-11.0829
혔	-11.083
▁분포한다	-11.0831
▁학교에서	-11.0832
겠다	-11.0836
▁종로구	-11.0837
▁잃은	-11.0838
▁긴장	-11.0839
▁존경	-11.0841
번대	-11.0844
▁자문	-11.0845
자연	-11.0845
▁삶의	-11.0845
▁원주	-11.0846
▁폭격	-11.0849
▁일컫는	-11.0849
徐	-11.0849
종교	-11.085
▁수학자	-11.085
▁빼앗	-11.0853
후에	-11.0856
으려	-11.0856
▁알레	-11.086
空	-11.0861
▁Ar	-11.0863
▁참여하여	-11.0864
▁장성	-11.0865
說	-11.0867
he	-11.0867
▁선교사	-11.0868
▁중대	-11.087
TO	-11.0871
▁편리	-11.0872
▁방식은	-11.0873
▁채로	-11.0874
▁배웠다	-11.0875
▁들어와	-11.0875
▁평행	-11.0877
▁학위	-11.088
점은	-11.088
▁친구들	-11.0881
▁원래의	-11.0881
▁실종	-11.0881
▁의견이	-11.0883
(2006	-11.0885
등에	-11.0886
자금	-11.0887
▁향한	-11.0887
화한	-11.0888
키스	-11.0888
▁북위	-11.0889
▁횡	-11.089
▁하인리히	-11.089
▁모델이다	-11.089
▁시점에서	-11.089
▁활동은	-11.0894
郞	-11.0895
▁전성기	-11.0895
▁청원	-11.0896
▁송나라	-11.0898
▁서식한다	-11.0899
▁않는다는	-11.0905
AD	-11.0906
▁까	-11.0908
▁달린	-11.0908
▁기습	-11.0909
▁받	-11.0909
드를	-11.0911
▁소속되어	-11.0911
GM	-11.0912
▁쓰기	-11.0913
賢	-11.0913
玉	-11.0913
▁착륙	-11.0914
▁내부에	-11.0916
▁갖	-11.0918
▁결과가	-11.0918
▁인터뷰	-11.0919
▁제외하고는	-11.0922
년대에는	-11.0923
▁저작권	-11.0924
버렸다	-11.0927
▁섬을	-11.0927
▁자신에게	-11.0928
▁갤럭시	-11.093
▁지류	-11.0932
거래	-11.0933
▁텍스트	-11.0936
▁지지하는	-11.0937
▁수신	-11.0937
▁결정을	-11.0938
딸	-11.094
▁피에르	-11.094
(4	-11.094
재판	-11.0942
▁해군의	-11.0942
▁사무실	-11.0943
▁혐의	-11.0944
▁기간에	-11.0944
ten	-11.0945
▁잉	-11.0945
▁역임한	-11.0946
어져	-11.0949
▁펠	-11.0949
▁소닉	-11.0955
사고	-11.0957
▁라우	-11.0958
관에	-11.0962
▁해적	-11.0962
ave	-11.0962
▁고려시대	-11.0963
▁분데스리가	-11.0966
▁실험을	-11.0966
▁지점에	-11.0967
▁마이크	-11.0971
▁다운로드	-11.0971
▁이미지를	-11.0975
▁줄어들	-11.0977
▁미얀마	-11.0977
▁화살	-11.0977
▁네이	-11.0978
토시	-11.098
▁세로	-11.0982
패를	-11.0982
▁상징하는	-11.0983
▁비례	-11.0985
▁특이한	-11.0987
후보	-11.0987
▁분리되어	-11.0988
▁기상청	-11.0988
경기에서	-11.0991
DS	-11.0991
▁창원시	-11.0993
ana	-11.0995
▁렌	-11.0996
ens	-11.0996
미르	-11.0998
랩	-11.0999
▁2020	-11.1001
▁최소한	-11.1001
▁쿨	-11.1003
▁에우	-11.1004
▁하부	-11.1005
▁고원	-11.1005
▁쉬운	-11.1005
▁닿	-11.1006
ade	-11.1007
▁매력	-11.1008
▁테니스	-11.1008
▁친정	-11.101
▁거주하는	-11.101
▁정확하게	-11.1011
▁허브	-11.1012
주고	-11.1012
身	-11.1012
應	-11.1012
▁결혼했다	-11.1013
▁세우	-11.1014
스피	-11.1014
▁품질	-11.1019
gen	-11.102
정리	-11.102
내에	-11.1022
룰	-11.1023
문이	-11.1025
▁불편	-11.1026
역과	-11.1028
앵	-11.1029
▁우승하였다	-11.1029
▁파르	-11.1029
▁멈추	-11.103
▁상당수	-11.1032
▁환영	-11.1035
▁말하였다	-11.1035
▁된다고	-11.1036
RI	-11.1037
▁특징은	-11.1037
▁순천	-11.1037
▁전망	-11.1038
▁앨범이다	-11.1039
▁특징이	-11.104
▁넣었다	-11.104
RO	-11.1041
▁유성	-11.1043
▁두어	-11.1043
▁종결	-11.1046
▁아래로	-11.1049
PA	-11.1049
▁소환	-11.1051
AM	-11.1051
번지	-11.1052
▁유출	-11.1053
US	-11.1053
▁학생들이	-11.1054
ME	-11.1055
EN	-11.1055
▁Di	-11.1055
범죄	-11.1056
▁강이	-11.1056
▁본사는	-11.1059
保	-11.1059
▁취지	-11.106
▁일부로	-11.106
팀이	-11.1063
티노	-11.1063
▁활약한	-11.1063
▁방식이	-11.1067
▁북구	-11.1068
로마	-11.1069
▁행정부	-11.1069
▁사이에는	-11.1073
받는	-11.1073
▁등지에서	-11.1077
▁동래	-11.1077
les	-11.1079
▁스토	-11.108
ES	-11.1081
章	-11.1083
▁병역	-11.1084
▁진지	-11.1084
▁둥근	-11.1084
▁코치로	-11.1085
▁어워드	-11.1086
동은	-11.1088
"("	-11.1088
▁IP	-11.1091
고리	-11.1091
같이	-11.1092
▁본명	-11.1093
▁박해	-11.1096
▁공인	-11.1098
▁레논	-11.1098
헨	-11.1099
무기	-11.11
자에	-11.11
▁남부에	-11.1101
▁마스	-11.1102
▁몰려	-11.1103
계급	-11.1104
▁지방도	-11.1104
파는	-11.1104
까지도	-11.1106
▁회사는	-11.1108
▁술탄	-11.1112
▁작곡한	-11.1113
▁집으로	-11.1113
▁정자	-11.1118
▁영화배우	-11.1118
▁둘레	-11.1122
▁역설	-11.1124
븐	-11.1125
▁교황청	-11.1125
▁인정받아	-11.1126
▁프랑스에서	-11.1129
▁담배	-11.1129
조각	-11.1131
맞	-11.1133
▁뜻의	-11.1133
▁전라도	-11.1134
▁팩	-11.1134
▁이원	-11.1135
▁일했다	-11.1136
빅	-11.1136
▁타운	-11.1137
▁꼭	-11.1139
▁국가를	-11.1139
▁김상	-11.114
▁섬에서	-11.1141
▁대외	-11.1143
old	-11.1143
단지	-11.1143
▁링크	-11.1144
▁반박	-11.1144
▁무려	-11.1144
ish	-11.1145
▁구제	-11.1146
인치	-11.1146
▁죄를	-11.1147
앨범	-11.1147
▁동남아시아	-11.1148
▁88	-11.1149
냥	-11.115
여자고등학교	-11.1151
▁정부와	-11.1151
명에	-11.1154
ik	-11.1154
sc	-11.1154
▁암호	-11.1156
우주	-11.1156
▁이스트	-11.1157
ug	-11.116
▁아이슬란드	-11.116
▁레이저	-11.116
▁주제가	-11.1161
▁고양	-11.1163
▁단종	-11.1163
사령관	-11.1163
▁정말	-11.1164
▁교외	-11.1164
▁고구려의	-11.1165
모를	-11.1165
▁뿔	-11.1166
奉	-11.1166
드와	-11.1167
문과	-11.1168
▁쓰였다	-11.117
야스	-11.1172
De	-11.1172
▁사토	-11.1172
산맥	-11.1173
나와	-11.1175
▁이에야스	-11.1175
▁중장	-11.1175
놀이	-11.1176
▁존중	-11.1177
▁노동자들	-11.1178
▁운행을	-11.1178
▁무제	-11.1182
가수	-11.1186
▁57	-11.1186
▁소지	-11.1186
▁비오	-11.1189
늄	-11.1189
▁시설이	-11.119
사항	-11.119
대전	-11.119
▁정부로부터	-11.1192
크의	-11.1194
아과	-11.1196
행성	-11.1197
▁세자	-11.1199
▁에스파냐	-11.1202
omys	-11.1203
▁전하	-11.1205
느냐	-11.1207
ler	-11.1208
▁테일러	-11.1208
(7	-11.121
▁계속되었다	-11.121
▁역까지	-11.1211
▁김재	-11.1211
(8	-11.1212
▁마음작용	-11.1214
▁보충	-11.1214
▁1899	-11.1215
▁되었지만	-11.1218
▁계절	-11.122
계로	-11.1221
▁기종	-11.1221
나오	-11.1222
찌	-11.1224
▁탓에	-11.1224
lin	-11.1225
▁프랑	-11.1226
▁삼각형	-11.1228
▁거리가	-11.1228
▁1902	-11.1229
▁생일	-11.123
조가	-11.1231
퍼스	-11.1231
▁ISO	-11.1231
▁110	-11.1233
▁젠	-11.1233
▁말기에	-11.1233
▁도망	-11.1233
▁건물로	-11.1236
省	-11.1238
▁에이스	-11.1241
派	-11.1243
▁허리케인	-11.1244
▁받았으나	-11.1244
▁PD	-11.1245
▁강원	-11.1245
▁교장	-11.1245
▁자격	-11.1246
▁달의	-11.1248
▁식으로	-11.1248
▁도움으로	-11.1248
▁위협을	-11.1249
▁거짓	-11.125
▁영화에	-11.125
양군	-11.1251
hi	-11.1251
▁선언했다	-11.1252
▁둘은	-11.1252
res	-11.1252
▁리버	-11.1252
ern	-11.1254
벳	-11.1255
流	-11.1256
ts	-11.1256
전투	-11.1257
▁언론인	-11.1258
▁먹고	-11.1259
▁출전해	-11.1259
▁보내는	-11.1259
FM	-11.1264
슬리	-11.1264
▁때도	-11.1265
사관	-11.1272
ain	-11.1273
▁회화	-11.1273
▁무거운	-11.1274
▁성향	-11.1275
계와	-11.1275
sch	-11.1277
공장	-11.1278
▁헤드	-11.1281
▁미드필더	-11.1283
▁맡았고	-11.1284
▁시칠리아	-11.1286
▁일어날	-11.1286
▁소설가	-11.1286
▁엑스	-11.1287
가쿠	-11.1288
▁지각	-11.1289
▁시모	-11.129
▁노선은	-11.129
공단	-11.1292
▁관리하고	-11.1292
II	-11.1293
▁산다	-11.1294
▁맞추	-11.1296
▁수평	-11.1297
▁벌인	-11.1297
修	-11.1298
▁슬로베니아	-11.1298
色	-11.1298
▁결론	-11.1298
▁메달	-11.1299
▁치러진	-11.1301
形	-11.1304
CD	-11.1305
▁중심지는	-11.1309
▁사망자	-11.1309
드가	-11.1311
보를	-11.1312
▁정책에	-11.1313
▁프로리그	-11.1313
스탄	-11.1313
블리	-11.1315
▁김태	-11.1316
▁트라	-11.1316
▁정밀	-11.1318
▁부르고	-11.1318
▁Pa	-11.1319
▁구릉	-11.132
▁사상을	-11.1321
▁보르	-11.1323
▁r	-11.1324
현상	-11.1324
▁분배	-11.1324
▁평소	-11.1327
▁돌아오	-11.1328
▁72	-11.1328
주년	-11.1328
석의	-11.1328
▁그렇지	-11.1328
▁한나라	-11.1331
▁출산	-11.1333
敬	-11.1334
lan	-11.1336
▁남아있는	-11.1337
▁블라	-11.1339
▁사용이	-11.134
▁아이를	-11.1342
였다고	-11.1343
프로그램	-11.1343
▁성모	-11.1343
▁만나게	-11.1343
▁콘스탄티노폴리스	-11.1346
▁연기자	-11.1347
▁텐	-11.1349
▁리비아	-11.1349
▁대처	-11.135
▁리그의	-11.1352
▁호세	-11.1353
▁가수로	-11.1353
▁일으키는	-11.1354
▁강과	-11.1354
▁진출했다	-11.1356
▁스피드	-11.1357
금지	-11.1358
MB	-11.136
산을	-11.136
▁수행하는	-11.1361
▁자율	-11.1361
파리	-11.1361
▁어릴	-11.1362
▁의사를	-11.1362
쟁이	-11.1363
度	-11.1364
-9	-11.1366
▁감지	-11.1367
▁승강장은	-11.1367
▁일반화	-11.1367
▁중성자	-11.1369
시까지	-11.1369
▁맡	-11.137
ا	-11.1371
▁제주특별자치도	-11.1371
▁손가락	-11.1371
▁초점을	-11.1372
▁전장	-11.1373
▁싶다	-11.1376
▁좌절	-11.1376
▁밑에	-11.1377
▁노력을	-11.1378
나갔다	-11.1378
▁의거	-11.1381
梁	-11.1383
ON	-11.1383
▁본사	-11.1383
▁사쿠라	-11.1384
▁시간은	-11.1386
▁상무	-11.1387
т	-11.1389
線	-11.1389
▁스크린	-11.1392
여단	-11.1395
▁차지한	-11.1397
▁1,2	-11.1399
▁설립했다	-11.1401
ack	-11.1404
eo	-11.1405
▁불가능하다	-11.1405
▁엘리베이터	-11.1406
▁남겨	-11.1406
▁°	-11.1408
▁독일은	-11.1408
ger	-11.1408
하의	-11.1409
▁내외	-11.1409
▁영역을	-11.1413
▁도서	-11.1413
▁방패	-11.1413
▁법령	-11.1413
▁중심의	-11.1414
▁길게	-11.1417
▁식민	-11.1417
먼트	-11.1418
)〉	-11.1418
▁기록하여	-11.1419
á	-11.142
▁움직이는	-11.1421
▁한명	-11.1422
ei	-11.1423
▁육지	-11.1423
▁칩	-11.1424
셜	-11.1424
?)	-11.1424
▁공산	-11.1425
ical	-11.1426
▁발족	-11.1427
▁즈음	-11.1428
▁남한	-11.143
老	-11.1432
▁골프	-11.1432
▁Bo	-11.1433
▁바라보	-11.1434
▁새끼	-11.1439
▁누르고	-11.1439
▁MS	-11.1441
▁받았	-11.1442
▁조국	-11.1442
론적	-11.1443
끝	-11.1447
▁흔적	-11.1448
▁전쟁으로	-11.1451
▁면역	-11.1453
▁오늘	-11.1455
▁승무원	-11.1455
▁일행	-11.1455
▁조사를	-11.1456
▁내려가	-11.1457
▁어디	-11.1457
▁홍수	-11.1457
▁보지	-11.1459
▁듯한	-11.1459
▁마쳤다	-11.146
ン	-11.1462
료를	-11.1463
▁NBA	-11.1464
선에	-11.1464
▁보전	-11.1466
▁IT	-11.1467
산동	-11.1468
▁제사	-11.1469
▁다케	-11.1471
▁담당하고	-11.1472
버트	-11.1472
▁사다	-11.1472
월드	-11.1473
▁연기를	-11.1474
DI	-11.1476
▁음반을	-11.1477
▁협조	-11.1478
돔	-11.1478
반도	-11.1479
▁뛰어나	-11.148
間	-11.1481
▁저택	-11.1481
▁날짜	-11.1482
▁이틀	-11.1483
제와	-11.1484
글리	-11.1486
▁아니지만	-11.1487
▁유력	-11.1488
플라	-11.1488
▁치세	-11.1488
▁일본으로	-11.1489
▁모양이	-11.149
▁환상	-11.149
▁서정	-11.1491
▁예언	-11.1491
▁이른	-11.1492
▁Tr	-11.1492
겼다	-11.1492
▁이론은	-11.1493
▁삼각	-11.1493
▁김진	-11.1495
신학	-11.1497
▁득표	-11.1498
▁응답	-11.15
IP	-11.15
▁평원	-11.1501
▁꿈을	-11.1503
든지	-11.1503
▁아버지와	-11.1503
位	-11.1505
申	-11.1505
▁김기	-11.1507
▁주장하고	-11.1509
▁전압	-11.151
▁메가	-11.1511
▁든	-11.1512
▁지구에서	-11.1512
▁지수	-11.1512
▁나가사키	-11.1513
▁설비	-11.1514
설을	-11.1514
위는	-11.1515
넘	-11.1515
▁점이다	-11.1515
키아	-11.1516
?"	-11.1517
▁학원	-11.1523
▁포스트	-11.1523
▁황태자	-11.1525
TC	-11.1525
▁총독부	-11.1526
스에	-11.153
▁일제강점기	-11.153
▁제국은	-11.1531
원과	-11.1533
▁용기	-11.1535
▁노래는	-11.1536
ies	-11.1538
▁속도가	-11.1538
▁중기	-11.1539
л	-11.1541
▁정체	-11.1545
툰	-11.1546
▁분기	-11.1547
▁탈환	-11.1549
ja	-11.1549
▁종래	-11.155
▁고민	-11.1552
▁율	-11.1553
▁소유하고	-11.1554
특별	-11.1554
▁부정적인	-11.1555
질을	-11.1556
▁로고	-11.1557
▁일찍	-11.1558
▁무신	-11.1559
▁마케팅	-11.1559
▁식당	-11.156
▁첼시	-11.1561
▁쓰인	-11.1561
하겠다는	-11.1563
▁곰	-11.1563
▁충주	-11.1565
읽	-11.1566
HO	-11.1567
▁끝까지	-11.1567
▁그레이	-11.1568
▁160	-11.1569
▁개수	-11.157
▁정도였다	-11.1572
▁남극	-11.1572
흔	-11.1573
▁읍	-11.1573
▁호평을	-11.1573
▁국무총리	-11.1573
▁라이선스	-11.1573
푸스	-11.1574
▁명령어	-11.1574
oss	-11.158
▁파생	-11.1581
▁의미에서	-11.1583
▁것들	-11.1585
로드	-11.1585
▁전념	-11.1585
▁이곳은	-11.1586
▁공백	-11.159
oll	-11.1591
캠퍼스	-11.1591
▁밀양	-11.1592
▁맺어	-11.1593
▁기수	-11.1596
▁부문에서	-11.1598
됨으로써	-11.1599
조합	-11.1599
협력	-11.1602
▁정체성	-11.1602
어진	-11.1603
▁보여주었다	-11.1607
역은	-11.1609
▁포도	-11.1612
힘	-11.1615
副	-11.1616
▁않았으나	-11.1617
▁형태는	-11.1618
장애	-11.1618
▁장갑	-11.1622
종을	-11.1622
고속	-11.1622
▁에릭	-11.1623
▁인정하지	-11.1623
▁자랑	-11.1623
▁김수	-11.1624
법과	-11.1625
▁풍부	-11.1627
▁며칠	-11.1629
▁충격을	-11.163
▁눈이	-11.1631
편으로	-11.1632
▁사용을	-11.1634
화에	-11.1634
양식	-11.1634
▁꼴	-11.1635
▁중심기압	-11.1636
▁후보자	-11.1636
▁분류된다	-11.1636
▁문양	-11.1636
조치	-11.1637
▁모자	-11.1637
피아	-11.1637
▁북한의	-11.1638
▁일어나자	-11.1638
▁No	-11.1638
만한	-11.1639
▁묘지	-11.1639
▁윌리엄스	-11.1639
▁오타	-11.164
▁풍자	-11.1642
▁파업	-11.1642
▁지폐	-11.1643
연합회	-11.1643
LS	-11.1645
▁성격이	-11.1647
계가	-11.1647
▁오스트리아의	-11.1648
▁민속	-11.1649
cy	-11.165
▁전도	-11.165
기사	-11.1651
▁십자가	-11.1652
▁소실	-11.1653
七	-11.1654
▁반전	-11.1655
기준	-11.1656
줄기	-11.1656
▁기록된	-11.1656
▁경선	-11.1657
▁첨가	-11.1658
▁고발	-11.1659
▁방법이다	-11.1663
▁되었을	-11.1663
▁특이	-11.1663
▁김해	-11.1664
▁가구	-11.1667
▁휴식	-11.1667
▁백성	-11.167
▁총괄	-11.167
▁사서	-11.167
▁끝나	-11.167
재산	-11.1673
자였던	-11.1674
산리	-11.1674
▁빛의	-11.1676
▁생각한다	-11.1677
▁펼쳤다	-11.1678
▁일종으로	-11.1678
▁건물을	-11.1679
▁Man	-11.1679
▁앨범의	-11.1679
클로	-11.168
▁130	-11.1681
▁근교	-11.1682
▁장편	-11.1685
EX	-11.1685
여서	-11.1689
▁적의	-11.1689
▁배틀	-11.1689
▁이반	-11.1691
Jo	-11.1691
▁기생	-11.1691
▁카이사르	-11.1692
평화	-11.1694
▁장사	-11.1695
▁미터	-11.1697
out	-11.1702
▁리가	-11.1704
봤	-11.1704
▁공의회	-11.1706
▁상부	-11.1706
ple	-11.1707
▁팀에	-11.1707
▁길고	-11.1708
사리	-11.1709
▁나이트	-11.1711
▁꽤	-11.1712
▁국가대표	-11.1713
슨은	-11.1713
▁데뷔하였고	-11.1714
▁생각하고	-11.1715
팬	-11.1715
idae	-11.1718
▁지명을	-11.1718
▁격퇴	-11.1718
▁내고	-11.172
▁선수이며	-11.1721
▁비슷하게	-11.1722
▁옷을	-11.1723
議	-11.1723
▁바오로	-11.1724
▁성공하였다	-11.1728
ich	-11.1731
▁견제	-11.1731
▁휴전	-11.1732
십자	-11.1732
▁선수들이	-11.1733
▁신비	-11.1733
▁평야	-11.1733
▁발현	-11.1734
▁있다면	-11.1735
▁음악적	-11.1736
▁외곽	-11.1738
▁가난한	-11.1738
▁중국과	-11.1739
▁연인	-11.1739
투표	-11.1741
思	-11.1742
“	-11.1743
종은	-11.1743
▁프라이	-11.1744
년동안	-11.1745
▁me	-11.1745
▁대폭	-11.1747
치기	-11.1747
시기	-11.175
▁퍼시픽	-11.1751
▁음반은	-11.1751
▁일도	-11.1753
憲	-11.1755
행사	-11.1757
▁책봉	-11.1758
are	-11.1759
▁일본과	-11.176
결과	-11.176
▁콩고	-11.176
~5	-11.1761
▁것보다	-11.1761
▁둘러싸고	-11.1761
▁에티오피아	-11.1761
浦	-11.1761
pp	-11.1762
▁비서	-11.1768
▁츠	-11.1768
▁밑에서	-11.1768
▁있으면서	-11.1771
KBS	-11.1771
▁배구	-11.1771
▁밟	-11.1773
▁부위	-11.1774
▁객체	-11.1774
▁드라이브	-11.1775
다니	-11.1775
▁등이다	-11.1775
러시아	-11.1777
신이	-11.1778
▁스피	-11.1779
▁출전했다	-11.1779
▁시절부터	-11.178
▁우라늄	-11.1781
▁꼬	-11.1782
▁v	-11.1785
▁신중	-11.1786
▁필요성	-11.1787
ST	-11.1787
▁흡	-11.1788
▁소총	-11.1789
▁가속	-11.1789
▁과거의	-11.1789
▁kg	-11.179
▁판결을	-11.179
▁가마	-11.1793
▁조치를	-11.1794
▁효소	-11.1795
도어	-11.1796
▁So	-11.1797
Ma	-11.1797
▁마약	-11.1797
▁편입되었다	-11.1798
▁장애인	-11.1798
▁얻는다	-11.1798
▁한성부	-11.1798
▁플레이스테이션	-11.1799
▁걱정	-11.1799
▁목표를	-11.1799
소는	-11.18
▁용량	-11.1801
▁드럼	-11.1802
야만	-11.1804
▁아크	-11.1805
▁부장	-11.1805
▁IBM	-11.1806
▁금강	-11.1807
▁소문	-11.181
▁있어서는	-11.1812
▁결정적인	-11.1812
치의	-11.1813
▁붙잡	-11.1813
▁대포	-11.1814
형식	-11.1815
▁실시간	-11.1816
요리	-11.1816
히메	-11.1817
▁암석	-11.1818
전으로	-11.1818
▁왔	-11.1818
▁형사소송법	-11.1818
▁독일인	-11.1823
▁등번호	-11.1825
망을	-11.1826
▁성균관	-11.1826
▁거행	-11.1826
왔으며	-11.1827
▁각본을	-11.1828
ile	-11.1829
▁하더라도	-11.1829
▁초상화	-11.183
ox	-11.1832
▁엄격한	-11.1833
인들에게	-11.1834
▁구조로	-11.1836
▁크리스마스	-11.1838
▁적절	-11.1838
문서	-11.1839
~3	-11.184
모스	-11.1843
▁요동	-11.1845
▁과정은	-11.1846
▁막아	-11.1847
▁노인	-11.1847
▁자신과	-11.1848
형제	-11.185
▁오리콘	-11.1851
▁빠	-11.1851
▁중의원	-11.1852
▁시기는	-11.1853
▁버튼	-11.1853
▁구조는	-11.1854
▁부근에	-11.1854
▁알렸다	-11.1855
▁개혁을	-11.1856
▁폭스	-11.1856
곱	-11.1858
▁용병	-11.1859
▁포격	-11.1859
▁63	-11.1859
▁구동	-11.1861
경기를	-11.1861
▁젤	-11.1863
관의	-11.1864
amp	-11.1864
산은	-11.1865
▁용어로	-11.1865
▁낼	-11.1865
John	-11.1865
▁마감	-11.1866
▁컬러	-11.1867
▁전에는	-11.1869
업자	-11.187
▁임용	-11.1872
▁배를	-11.1872
▁타카	-11.1872
▁알라	-11.1872
▁황제가	-11.1874
▁몸무게는	-11.1875
▁생기	-11.1875
▁시장에서	-11.1875
▁득점을	-11.1876
천리	-11.1876
▁변동	-11.1877
▁○	-11.1878
▁1897	-11.1878
▁배신	-11.1879
▁스쿨	-11.188
클리	-11.1881
▁스트리트	-11.1882
ock	-11.1882
▁과학자	-11.1883
▁도미	-11.1883
▁속으로	-11.1884
▁부도	-11.1884
▁자유로운	-11.1884
▁마르크스	-11.1885
▁1901	-11.1886
▁부분적으로	-11.1886
▁시리즈에서	-11.1887
▁버지니아	-11.1888
타나	-11.1888
▁디스플레이	-11.1889
▁나타낼	-11.1895
▁클리	-11.1896
▁장려	-11.1897
▁왜냐하면	-11.1901
▁억압	-11.1901
▁출전하였다	-11.1903
▁고쳐	-11.1903
▁승리한	-11.1905
▁쌍둥이	-11.1908
▁US	-11.191
▁앙리	-11.1911
▁노동당	-11.1911
▁일본이	-11.1912
▁요구했다	-11.1912
모가	-11.1912
ory	-11.1914
▁축구단	-11.1914
역학	-11.1914
▁채권	-11.1915
▁속성	-11.1915
▁필립	-11.1915
▁몬테	-11.1916
▁시초	-11.1918
▁존속	-11.1918
▁Li	-11.1919
▁얀	-11.1919
아웃	-11.1922
인민	-11.1922
▁사우디아라비아	-11.1927
▁인재	-11.1928
▁노부나가	-11.193
▁반경	-11.1932
▁후일	-11.1933
▁팔라	-11.1933
▁꼽	-11.1934
반응	-11.1939
▁다리를	-11.1939
니가	-11.1943
▁||	-11.1944
집을	-11.1946
▁매니저	-11.1946
▁차관	-11.1947
▁학파	-11.1948
▁수장	-11.1952
act	-11.1952
ey	-11.1956
히토	-11.1957
▁니콜라	-11.1958
▁갈라	-11.1958
정권	-11.1962
▁부분에서	-11.1962
▁통근	-11.1964
▁랑	-11.1964
▁중간에	-11.1964
▁브라우저	-11.1966
等	-11.1966
▁사용될	-11.1966
▁동명의	-11.1966
▁서북	-11.1967
▁시작되어	-11.1969
웨어	-11.197
▁없었기	-11.1971
▁언제	-11.1973
▁Pro	-11.1974
▁랜	-11.1975
하기를	-11.1978
▁금액	-11.1979
fe	-11.1979
▁댐	-11.198
▁나눌	-11.198
ven	-11.1982
▁팀인	-11.1983
양성	-11.1984
▁자연스럽게	-11.1986
스트라	-11.1986
▁피난	-11.1987
PC	-11.1988
▁중국인	-11.1989
▁장인	-11.1992
▁좋	-11.1993
▁업적	-11.1993
▁변경하였다	-11.1993
▁부착	-11.1993
▁관념	-11.1993
▁트윈스	-11.1993
▁차종	-11.1993
▁칭찬	-11.1994
▁퓨	-11.1995
▁작센	-11.1995
▁부리	-11.1995
▁도시철도	-11.1996
그램	-11.1996
▁놓은	-11.1997
노미야	-11.1997
라기	-11.1998
▁아사히	-11.1998
▁밴드의	-11.2001
▁진행된다	-11.2002
▁친일파	-11.2003
▁KT	-11.2003
way	-11.2006
▁참고로	-11.2007
▁교섭	-11.2011
미쓰	-11.2011
세르	-11.2012
▁칼라	-11.2014
▁거느리고	-11.2014
▁위장	-11.2014
▁인격	-11.2015
▁조건이	-11.2016
▁전쟁은	-11.2016
▁자유당	-11.2017
▁쓰여	-11.2017
溪	-11.2017
마스	-11.2018
▁밝기	-11.2018
현대	-11.2018
▁노란색	-11.2019
▁경향	-11.202
RS	-11.202
▁우정	-11.202
▁관리자	-11.2021
▁포드	-11.2025
▁사람과	-11.2025
그리스	-11.2026
고등	-11.2027
▁신생	-11.2028
▁다중	-11.203
▁내린	-11.203
▁부대를	-11.203
카리	-11.2031
▁마르코	-11.2032
▁활약했다	-11.2032
첼	-11.2032
右	-11.2037
900	-11.2037
▁단위로	-11.2038
파와	-11.2038
▁샹	-11.2039
▁징계	-11.204
!"	-11.2041
▁비유	-11.2041
▁정부에서	-11.2043
증을	-11.2043
▁건축가	-11.2044
놓	-11.2047
▁해병대	-11.205
▁친척	-11.205
▁링컨	-11.2057
▁있습니다	-11.2057
회장	-11.2059
▁mm	-11.2061
▁공사가	-11.2062
놈	-11.2062
▁윈	-11.2062
▁띄	-11.2062
▁발생할	-11.2063
▁당의	-11.2063
ear	-11.2064
▁상장	-11.2065
▁중재	-11.2066
▁몸에	-11.2066
▁진리	-11.2068
력은	-11.2068
▁al	-11.207
▁지사	-11.2071
▁장점	-11.2072
▁극히	-11.2074
룽	-11.2074
▁달러의	-11.2076
對	-11.2076
津	-11.2076
科	-11.2077
▁도주	-11.2081
듬	-11.2082
시키며	-11.2083
▁과제	-11.2084
타점	-11.2085
▁응원	-11.2085
톱	-11.2087
소송	-11.2087
▁여행을	-11.2089
렉스	-11.2092
▁함유	-11.2093
▁바뀌	-11.2095
책을	-11.2095
▁무산	-11.2095
▁도착한	-11.2095
▁갓	-11.2096
곡이	-11.2097
▁시즌에는	-11.21
▁이루	-11.2103
▁산림	-11.2103
▁세트	-11.2104
▁타이거즈	-11.2106
▁사거리	-11.2106
▁조화	-11.2106
▁대신하여	-11.2106
▁올스타전	-11.2108
▁68	-11.211
▁95	-11.2111
위안	-11.2113
▁하나님	-11.2113
▁주행	-11.2114
▁자손	-11.2115
▁영남	-11.2118
▁주거	-11.2119
▁쏘	-11.2119
▁사이버	-11.2119
▁밴드이다	-11.2121
이상	-11.2121
교사	-11.2122
口	-11.2122
▁카운티	-11.2122
00,000	-11.2122
▁백색	-11.2123
▁모터	-11.2123
▁무대를	-11.2123
머스	-11.2124
파르	-11.2125
▁표명	-11.2126
▁없애	-11.2127
ius	-11.2128
루는	-11.213
▁끼	-11.213
▁탐구	-11.213
▁섬으로	-11.2132
▁생각하는	-11.2133
▁소수의	-11.2134
▁스프링	-11.2136
▁급격히	-11.2137
란드	-11.2138
▁군은	-11.2138
헌법	-11.214
▁앨범에	-11.214
▁지혜	-11.2141
▁브루	-11.2142
▁샌	-11.2142
▁용인	-11.2142
▁간단히	-11.2143
▁대조	-11.2144
진흥	-11.2145
▁쓰지	-11.2146
ny	-11.2146
▁각본	-11.2148
_11	-11.215
▁부재	-11.215
(12	-11.2151
▁비판했다	-11.2151
▁탐사선	-11.2152
▁하거나	-11.2158
▁공간의	-11.2158
▁온천	-11.2158
▁상관	-11.216
▁실질적으로	-11.2161
!!	-11.2161
버린	-11.2161
▁개교	-11.2162
EA	-11.2166
▁추정되는	-11.2167
코는	-11.2167
▁이순신	-11.2168
▁요소가	-11.2169
▁군에	-11.2169
▁수습	-11.2171
▁독일과	-11.2171
▁의상	-11.2172
▁버렸다	-11.2174
▁차기	-11.2174
층은	-11.2174
▁교수가	-11.2175
▁실패로	-11.2177
▁1.5	-11.2177
▁논문을	-11.2177
▁강제로	-11.2178
▁1903	-11.2179
▁밝힌	-11.2181
▁상류	-11.2181
▁남부의	-11.2182
AT	-11.2182
▁별의	-11.2183
께	-11.2186
ism	-11.2186
예프	-11.2186
▁미국에서는	-11.2187
命	-11.2188
▁개념이	-11.2192
▁시작하였고	-11.2194
▁물에	-11.2196
선생	-11.2197
▁칭호를	-11.2197
▁양반	-11.2198
▁공로로	-11.2201
▁선보였다	-11.2201
▁윌슨	-11.2202
임에도	-11.2203
▁탈당	-11.2203
▁잃었다	-11.2204
▁안산	-11.2205
▁넣고	-11.2205
▁의뢰	-11.2205
▁데뷔를	-11.2205
▁섭취	-11.2208
▁결혼식	-11.2208
▁극장판	-11.2208
▁고수	-11.221
마트	-11.2211
▁겪었다	-11.2212
▁140	-11.2212
▁구조가	-11.2213
천사	-11.2213
▁승점	-11.2213
▁마리오	-11.2214
▁이글스	-11.2215
▁호환	-11.2217
▁날아	-11.222
ā	-11.2221
▁지나치게	-11.2221
▁컨셉	-11.2221
▁관리하는	-11.2223
▁국가로	-11.2225
족은	-11.2226
교를	-11.2226
▁위키백과	-11.2227
▁남양	-11.2228
▁지식을	-11.2229
▁경험이	-11.223
군수	-11.2231
▁왕위에	-11.2231
▁싸우	-11.2233
土	-11.2234
▁횟수	-11.2234
▁프로그램이	-11.2236
▁군을	-11.2237
▁상소	-11.2238
tra	-11.2238
터리	-11.2238
▁문화체육관광부	-11.224
▁그랑프리	-11.224
타케	-11.2242
▁것에서	-11.2243
▁일시적으로	-11.2244
▁실패하였다	-11.2244
▁신전	-11.2246
▁It	-11.2246
틀리	-11.2246
▁있었을	-11.2248
▁평일	-11.2249
▁거주하고	-11.2249
▁그려진	-11.2252
▁대답	-11.2252
붙	-11.2253
秀	-11.2254
▁개발되었다	-11.2254
▁알제리	-11.2254
▁진행된	-11.2254
영어	-11.2257
▁자리잡고	-11.226
『	-11.2261
▁그룹의	-11.2262
▁놓았다	-11.2263
▁직책	-11.2267
▁바그너	-11.2267
▁감정을	-11.227
▁여름에	-11.2271
▁초반에	-11.2272
공을	-11.2273
反	-11.2274
▁캠페인	-11.2274
▁지정하여	-11.2274
있던	-11.2277
ou	-11.2278
이었다고	-11.2279
▁아랍어	-11.2282
▁다음이	-11.2282
부리	-11.2283
▁습	-11.2285
대군	-11.2285
깨	-11.2286
함은	-11.2289
▁이름인	-11.229
▁영국은	-11.229
▁패스	-11.229
전차	-11.2291
▁양키스	-11.2291
▁실질적인	-11.2292
▁테이블	-11.2292
▁Su	-11.2293
짱	-11.2293
井	-11.2294
▁라이브러리	-11.2294
권으로	-11.2295
▁준비를	-11.2297
▁무렵에	-11.2299
▁이루어지고	-11.2302
▁담겨	-11.2302
▁투명	-11.2307
▁청주시	-11.2307
▁풍경	-11.2308
col	-11.2308
코가	-11.231
▁남구	-11.231
▁2,000	-11.2311
gi	-11.2311
구성	-11.2311
▁활동하는	-11.2312
▁엄마	-11.2315
▁문화방송	-11.2316
▁수용소	-11.2316
▁투옥	-11.232
▁권유	-11.232
▁최후의	-11.232
▁보좌	-11.232
錄	-11.232
▁평정	-11.2321
▁cm	-11.2322
▁공세	-11.2323
▁한국에	-11.2323
▁야생	-11.2323
미를	-11.2324
▁조리	-11.2326
▁국내에서	-11.2326
▁해변	-11.2327
▁상태였다	-11.2328
식과	-11.2329
▁고르	-11.233
▁개찰구	-11.2332
▁수면	-11.2337
▁회사를	-11.2337
▁con	-11.2339
▁중단되었다	-11.234
▁귀중한	-11.234
▁기울	-11.2341
▁복귀하였다	-11.2342
▁CF	-11.2343
▁다루	-11.2345
곽	-11.2347
у	-11.2347
▁캄보디아	-11.2347
▁강수량은	-11.2348
▁생각해	-11.2353
▁되돌아	-11.2353
▁후궁	-11.2354
▁계열사	-11.2354
ö	-11.2354
▁성은	-11.2354
▁여기에는	-11.2355
▁방침	-11.2356
(2012	-11.2356
▁폭풍	-11.2362
▁승차	-11.2363
▁딸을	-11.2363
▁입체	-11.2364
▁지구와	-11.2365
▁모듈	-11.2368
▁곡이다	-11.2368
로이드	-11.2368
소의	-11.2371
편이	-11.2372
▁동아일보	-11.2372
▁하겠다	-11.2372
▁광범위한	-11.2373
▁취재	-11.2373
레아	-11.2373
▁농도	-11.2373
▁거기서	-11.2375
▁배터리	-11.2376
미야	-11.2378
율이	-11.2379
MC	-11.2379
▁오프	-11.2381
▁팔레스타인	-11.2381
▁참가하고	-11.2382
ook	-11.2383
▁김경	-11.2384
▁이긴	-11.2385
시부터	-11.2385
AI	-11.2386
문은	-11.2387
CA	-11.2388
▁기록하는	-11.2388
문의	-11.2388
▁휘하	-11.2389
▁것으로서	-11.2389
▁체포되어	-11.2391
BO	-11.2393
▁스크	-11.2394
▁개막전	-11.2395
iss	-11.2395
▁모델은	-11.2396
▁하나이며	-11.2396
▁수렴	-11.2396
되었다가	-11.2398
▁승계	-11.2398
▁탐지	-11.2399
▁아오	-11.2401
▁확신	-11.2401
延	-11.2401
▁사이클	-11.2403
▁센서	-11.2405
▁양측	-11.2406
▁블루스	-11.2406
▁우리의	-11.2407
폴리	-11.2407
ko	-11.241
시키지	-11.241
▁사라졌다	-11.241
▁공헌	-11.2411
▁의회는	-11.2412
▁한국전쟁	-11.2412
으니	-11.2413
▁메시	-11.2414
CO	-11.2416
▁He	-11.2417
▁입당	-11.2418
▁최상위	-11.2419
▁치료를	-11.2419
▁향후	-11.2419
▁하느님	-11.242
▁숭배	-11.242
用	-11.2421
즈카	-11.2421
▁Ho	-11.2422
▁추출	-11.2423
엠	-11.2423
변화	-11.2424
▁대원	-11.2424
고기	-11.2424
▁부과	-11.2425
▁야구장	-11.2425
연속	-11.2426
▁소설을	-11.2426
▁계획에	-11.2429
(10	-11.2429
보르	-11.243
▁인접	-11.243
▁배후	-11.2431
▁지적했다	-11.2433
▁반해	-11.2435
력과	-11.2435
▁공신	-11.2435
▁고려대학교	-11.2437
GB	-11.2438
태수	-11.2438
▁냉각	-11.2439
▁선수로서	-11.2442
▁발매하였다	-11.2442
▁겨	-11.2444
▁설탕	-11.2444
▁실용	-11.2445
▁미국이	-11.2445
▁처분	-11.2448
곡리	-11.2449
▁관해	-11.2451
분석	-11.2451
륙	-11.2451
▁분기점	-11.2452
▁풍속	-11.2452
▁메트로	-11.2452
▁제트	-11.2453
즐	-11.2454
▁세균	-11.2456
▁회계	-11.2461
い	-11.2462
▁토니	-11.2462
회로	-11.2463
▁힘든	-11.2465
았는데	-11.2467
▁제독	-11.2467
▁태양계	-11.2468
言	-11.2469
po	-11.247
학교를	-11.247
▁미쓰	-11.2471
▁사이가	-11.2471
▁던져	-11.2472
▁윗	-11.2473
▁힘입어	-11.2475
▁싱글로	-11.2475
▁웰	-11.2476
ever	-11.2476
▁있는지	-11.2477
▁범인	-11.2477
▁취항	-11.2477
목으로	-11.2477
▁University	-11.248
頭	-11.2482
▁업그레이드	-11.2482
▁코믹스	-11.2483
▁몰래	-11.2484
카스	-11.2487
▁포켓몬	-11.2488
가르	-11.2488
계는	-11.2489
▁라이온즈	-11.2489
▁파장	-11.249
족과	-11.2493
▁원고	-11.2493
▁업적을	-11.2495
론이	-11.2495
시노	-11.2496
▁이마	-11.2497
킨스	-11.2497
》("	-11.2499
▁체계를	-11.2499
팡	-11.2499
▁문서는	-11.2499
▁강력	-11.2499
▁근처에서	-11.2502
▁펴	-11.2503
▁제외하면	-11.2505
▁기점으로	-11.2507
▁턱	-11.2507
▁총칭	-11.2508
▁안나	-11.2509
▁그날	-11.2511
▁미노	-11.2512
▁사르	-11.2512
▁환경에서	-11.2512
▁북동부	-11.2515
샨	-11.2516
弘	-11.2516
▁관할하는	-11.2517
▁새겨져	-11.2517
▁삼성전자	-11.2518
▁과정에	-11.2518
▁경성부	-11.2519
▁진짜	-11.2519
RA	-11.252
▁음식을	-11.252
부산	-11.2521
▁중순	-11.2521
▁나오지	-11.2522
▁검은색	-11.2522
▁나눠	-11.2523
▁정사	-11.2524
▁버전이	-11.2524
ust	-11.2525
렵	-11.2526
del	-11.2526
▁의원은	-11.2527
▁재혼	-11.2527
▁아종	-11.2528
▁법을	-11.2529
해도	-11.253
▁닐	-11.2531
▁정무	-11.2531
▁호조	-11.2531
▁보살	-11.2534
▁열고	-11.2535
▁드림	-11.2536
▁순수한	-11.2536
화의	-11.2537
▁발트	-11.2537
▁종류가	-11.2541
▁세르	-11.2544
▁고사	-11.2545
▁음악은	-11.2545
▁마일	-11.2547
▁담긴	-11.2548
sp	-11.2548
쿨	-11.2549
皇	-11.2549
라니	-11.2551
▁거론	-11.2553
▁바가	-11.2554
▁그러던	-11.2555
楊	-11.2557
▁태도를	-11.2563
▁밀접한	-11.2564
MP	-11.2564
▁지내	-11.2566
▁뜨	-11.2567
기념	-11.2567
▁빌려	-11.257
아들	-11.2571
결정	-11.2571
▁바티칸	-11.2571
▁지정된	-11.2572
▁옛날	-11.2572
▁총회	-11.2573
▁일명	-11.2573
여명의	-11.2574
▁시호를	-11.2574
▁고분	-11.2574
앞	-11.2574
▁정서	-11.2576
▁포병	-11.2577
▁PS	-11.2577
mon	-11.2577
~2	-11.2577
클럽	-11.2578
▁연상	-11.2578
▁릴리	-11.258
▁보완	-11.258
약을	-11.258
▁인체	-11.2583
к	-11.2584
▁천사	-11.2588
주식회사	-11.2589
▁부족한	-11.259
▁단식	-11.2592
▁모른다	-11.2593
▁후방	-11.2595
▁기갑	-11.2595
▁주권	-11.2595
▁바이오	-11.2596
▁지어졌다	-11.2596
ib	-11.2597
보로	-11.2598
国	-11.2598
터널	-11.2599
RC	-11.26
ps	-11.2601
▁야마토	-11.2604
▁나이지리아	-11.2605
▁무상	-11.2606
이라도	-11.2607
브스	-11.2609
▁자신도	-11.261
yl	-11.2611
▁후보가	-11.2611
▁62	-11.2613
▁세이부	-11.2616
▁어원	-11.2616
▁1860	-11.2617
▁연방의	-11.2618
개미	-11.2618
▁사인	-11.2618
▁게이지	-11.262
ase	-11.2622
▁혹	-11.2623
▁밴드는	-11.2623
▁시스템이	-11.2624
언어	-11.2624
붕	-11.2625
)』	-11.2625
론에	-11.2626
▁오프닝	-11.2626
▁위탁	-11.2629
쉽	-11.2629
치오	-11.2631
사지	-11.2632
▁지바	-11.2632
▁등장했다	-11.2632
▁자세한	-11.2632
▁하나였다	-11.2634
▁신규	-11.2636
▁재현	-11.2636
▁신호를	-11.2636
▁생각할	-11.2636
▁질량은	-11.2639
▁수술을	-11.264
▁비난을	-11.264
▁적지	-11.2643
▁연합국	-11.2644
畵	-11.2647
NE	-11.2647
▁이후로는	-11.2651
▁59	-11.2652
프가	-11.2652
험	-11.2653
▁올스타	-11.2653
將	-11.2653
▁아비	-11.2654
▁첩	-11.2654
▁매출	-11.2654
▁고치	-11.2654
▁간격	-11.2654
so	-11.2655
당하고	-11.2655
▁차원에서	-11.2656
▁존재하며	-11.2656
▁베드로	-11.2657
▁요크	-11.2657
▁만났	-11.2661
▁높고	-11.2662
▁경우를	-11.2662
▁뷰	-11.2662
▁이래로	-11.2664
산의	-11.2665
▁참여하고	-11.2667
▁네이버	-11.2667
사이트	-11.2667
지에서	-11.267
▁해소	-11.2671
괄	-11.2672
▁토착종	-11.2673
▁도입되었다	-11.2674
▁지속적인	-11.2674
학자이다	-11.2677
(11	-11.2677
▁종으로	-11.2678
▁밀도	-11.2678
▁영의정	-11.2679
▁토성	-11.2679
놓고	-11.2679
▁북서쪽	-11.268
陳	-11.2681
신의	-11.2681
:1	-11.2682
▁노조	-11.2682
▁스티브	-11.2685
▁가지며	-11.2685
스럽게	-11.2687
▁최후	-11.269
▁고립	-11.2691
다면	-11.2691
▁축하	-11.2692
▁자유형	-11.2692
함으로	-11.2695
께서	-11.2695
▁행적	-11.2697
▁중앙위원회	-11.2697
▁왜곡	-11.2698
▁베어스	-11.2699
덤	-11.2699
▁돌리	-11.27
햄	-11.2701
▁방송되었다	-11.2701
▁고백	-11.2702
▁뜨거운	-11.2702
▁연구는	-11.2702
세기부터	-11.2703
▁운하	-11.2703
▁굿	-11.2703
교도	-11.2703
▁대표적	-11.2704
▁유아	-11.2704
▁DC	-11.2704
토모	-11.2706
베스	-11.2706
곡으로	-11.2708
▁위임	-11.2708
▁각자	-11.2711
▁사건이다	-11.2711
공항	-11.2713
▁직접적으로	-11.2714
▁헤르	-11.2715
▁이상으로	-11.2715
▁배우로	-11.2716
▁정해진	-11.2717
▁개발에	-11.2717
▁따르	-11.2718
▁비정	-11.2719
문자	-11.2719
▁결코	-11.2719
자르	-11.2719
▁전체가	-11.2719
▁아래에서	-11.272
▁흐르	-11.2721
▁독립된	-11.2721
▁보여주	-11.2721
지오	-11.2722
렸으며	-11.2722
▁강남	-11.2722
▁첨	-11.2722
▁연결된	-11.2723
▁마루	-11.2724
레이트	-11.2725
▁부대는	-11.2725
▁하나님의	-11.2725
팽	-11.2726
▁미군정	-11.273
▁당주	-11.2731
▁공모	-11.2733
▁1884	-11.2733
▁진출에	-11.2733
▁실망	-11.2733
▁불리게	-11.2733
▁모르는	-11.2734
▁주위에	-11.2735
▁블랙홀	-11.2738
▁광해군	-11.2738
▁엑	-11.2741
▁체코슬로바키아	-11.2744
▁적극적인	-11.2746
▁심리학	-11.2747
▁제품을	-11.2748
루수	-11.2748
▁움직이	-11.2748
슈타인	-11.2749
▁사로잡	-11.275
數	-11.2751
▁보드	-11.2752
▁지고	-11.2753
▁가려	-11.2753
▁구호	-11.2755
▁세례	-11.2757
▁들어간다	-11.2758
iv	-11.2758
▁오키나와	-11.2758
▁양상	-11.2758
▁일컫는다	-11.2758
▁비로소	-11.2759
監	-11.2764
az	-11.2765
▁사리	-11.2765
▁연관	-11.2771
▁재능을	-11.2771
픽	-11.2771
▁확인되었다	-11.2772
▁아바	-11.2772
▁너비	-11.2774
▁오지	-11.2776
멀	-11.2778
▁국소	-11.2778
전에서는	-11.2778
▁보일	-11.2778
進	-11.2778
▁책임자	-11.2779
▁단장	-11.2779
사카	-11.2779
▁후안	-11.2784
▁직전에	-11.2786
▁그녀	-11.2786
▁시절에는	-11.2787
▁혈통	-11.279
▁우세	-11.279
▁동력	-11.2791
채널	-11.2792
▁페어	-11.2794
회관	-11.2795
▁결성된	-11.2799
▁생태	-11.28
▁와이	-11.2801
▁동명	-11.2802
▁직결	-11.2805
玄	-11.2807
▁비롯	-11.2807
져서	-11.2809
▁다양하다	-11.281
▁날에	-11.2813
▁협주곡	-11.2814
미스	-11.2814
해온	-11.2815
▁루터	-11.2815
▁펼치	-11.2815
▁카를로	-11.2817
▁동남	-11.2821
▁것인데	-11.2823
▁찾아볼	-11.2824
▁중심부	-11.2826
▁일생	-11.2826
▁신도	-11.2826
▁딱	-11.2827
구와	-11.2827
(2009	-11.2828
▁아마도	-11.283
▁않으나	-11.2831
▁고령	-11.2831
▁지휘하는	-11.2831
▁얻지	-11.2833
▁생산하는	-11.2833
▁누리	-11.2834
태평양	-11.2834
질이	-11.2835
▁현금	-11.2835
▁악보	-11.2835
▁곤란	-11.2836
▁폭로	-11.2837
노르	-11.2839
릭스	-11.2839
▁거리는	-11.2839
mi	-11.2842
▁허리	-11.2844
▁재상	-11.2845
▁모델을	-11.2845
▁밖에도	-11.2845
▁퀴	-11.2846
▁참여하는	-11.2847
▁화제	-11.2848
▁우편	-11.2849
시대의	-11.2849
▁제사를	-11.2849
▁아열대	-11.2849
▁인접한	-11.2849
av	-11.2851
▁시설을	-11.2851
바타	-11.2851
▁이어진다	-11.2853
판에	-11.2854
館	-11.2856
전문학교	-11.2856
▁프랑수아	-11.2856
▁부모님	-11.2857
▁출전한	-11.2858
▁경상도	-11.286
sion	-11.2861
▁원산	-11.2861
▁시가지	-11.2861
▁어휘	-11.2868
▁소속이다	-11.2869
▁배치되어	-11.287
▁셸	-11.287
공연	-11.2871
바스	-11.2872
FL	-11.2875
▁다이어	-11.2875
그로	-11.2875
류는	-11.2878
▁내정	-11.2879
PL	-11.2882
▁서식하는	-11.2882
多	-11.2884
許	-11.2884
제이	-11.2885
▁봐	-11.2885
띠	-11.2885
▁유고	-11.2887
▁그다지	-11.2888
▁명종	-11.2889
▁이용한다	-11.2889
▁왕복	-11.2889
▁유래한	-11.289
▁동료들	-11.289
▁For	-11.289
▁몬트리올	-11.2891
▁조선로동당	-11.2891
▁선수를	-11.2894
▁스타리그	-11.2894
▁대의원	-11.2895
▁안보	-11.2895
항은	-11.2898
▁부자	-11.2898
▁전인	-11.29
▁대학에	-11.2902
▁말기의	-11.2904
인들을	-11.2904
▁가짜	-11.2905
▁굉장히	-11.2905
▁유네스코	-11.2905
▁않는다고	-11.2907
▁붙은	-11.2909
Ro	-11.2909
▁와인	-11.291
▁주장한	-11.2911
IM	-11.2911
▁사회에	-11.2912
RT	-11.2912
▁남기고	-11.2912
▁유튜브	-11.2913
▁화장실	-11.2913
▁중반에	-11.2913
▁성숙	-11.2913
▁회사가	-11.2916
포로	-11.2916
▁장거리	-11.2916
▁라마	-11.2917
로우	-11.2917
마일	-11.2921
▁공직	-11.2921
▁장치를	-11.2921
아는	-11.2921
▁다룬다	-11.2921
▁공습	-11.2923
▁느낌을	-11.2923
시게	-11.2924
▁행진	-11.2925
▁구축함	-11.2925
▁세계관	-11.2928
ED	-11.2929
▁모용	-11.293
비용	-11.293
리타	-11.293
▁싱	-11.2931
▁AS	-11.2931
▁자체를	-11.2931
▁부시	-11.2931
▁산하에	-11.2932
▁보니	-11.2933
▁열정	-11.2934
▁그룹이다	-11.2935
대손	-11.2936
대왕	-11.2937
지아	-11.2938
ere	-11.2938
▁피신	-11.294
▁생겨	-11.2941
몸	-11.2941
(2007	-11.2942
▁대상을	-11.2942
▁식별	-11.2942
▁자아	-11.2943
ous	-11.2945
플로	-11.2947
복지	-11.2947
린은	-11.2947
▁한층	-11.2949
▁그쳤다	-11.2949
▁회사이다	-11.2949
▁뛰어	-11.2949
▁66	-11.295
무대	-11.295
▁Mar	-11.2951
▁이름에서	-11.2956
▁대행	-11.2959
▁운명	-11.2961
▁증대	-11.2963
▁의미의	-11.2963
직에	-11.2964
▁동성애	-11.2964
턱	-11.2965
차량	-11.2965
춤	-11.2967
▁띠고	-11.2967
▁시베리아	-11.2967
▁자동으로	-11.2967
▁기반의	-11.2971
▁별명을	-11.2972
▁싶은	-11.2975
▁개미	-11.2975
지역의	-11.2976
藏	-11.2977
▁살려	-11.2977
▁이영	-11.2977
▁황실	-11.2978
▁대학을	-11.2979
처분	-11.2981
▁리스트	-11.2981
패로	-11.2982
▁대웅전	-11.2984
常	-11.2984
색을	-11.2984
▁연고지로	-11.2985
음에도	-11.2988
▁학교에	-11.299
▁Sa	-11.299
▁승부차기	-11.2991
▁마천루	-11.2991
▁드러머	-11.2991
▁톤	-11.2992
ure	-11.2992
엉	-11.2993
_12	-11.2994
▁블레	-11.2996
▁가져왔다	-11.2998
▁창업	-11.2999
세종	-11.3
레나	-11.3002
▁이유를	-11.3002
▁총애	-11.3003
▁존재했던	-11.3003
번을	-11.3004
▁진급	-11.3008
▁모델이	-11.3009
▁대피	-11.3012
▁상하	-11.3013
▁넣은	-11.3013
▁차이점	-11.3013
왕국	-11.3014
▁사망하고	-11.3016
상으로는	-11.3017
▁임상	-11.3022
▁실체	-11.3023
▁전통을	-11.3023
▁난다	-11.3024
속의	-11.3025
▁이슈	-11.3025
▁문과에	-11.3025
▁경기에서는	-11.3026
▁벌금	-11.3027
▁측근	-11.3027
미니	-11.3028
▁커널	-11.3028
▁나쁜	-11.3028
쿠마	-11.303
▁코트	-11.3031
▁축출	-11.3031
SP	-11.3032
LE	-11.3032
▁믿고	-11.3033
▁리그에	-11.3033
▁사위	-11.3033
▁춘천	-11.3033
부르	-11.3034
구간	-11.3034
▁겉	-11.3035
▁않았다고	-11.3037
▁비용을	-11.3037
▁구출	-11.3038
▁도루	-11.3038
▁뚫	-11.3039
▁Go	-11.304
▁위치하는	-11.304
재판소	-11.304
루가	-11.3041
▁61	-11.3041
▁칭호	-11.3043
▁소속된	-11.3043
▁기록해	-11.3043
▁푸른	-11.3043
▁제압	-11.3043
그레	-11.3045
▁비가	-11.3045
병으로	-11.3046
론과	-11.3048
▁누군가	-11.3049
끄	-11.3052
▁상점	-11.3052
잡이	-11.3052
▁쇼와	-11.3053
빌딩	-11.3054
▁무효	-11.3056
▁아미	-11.3057
▁복장	-11.3058
▁그냥	-11.3059
▁달성했다	-11.306
▁직위	-11.3061
▁겹	-11.3062
▁패키지	-11.3063
해주는	-11.3063
치카	-11.3064
den	-11.3065
▁콤	-11.3066
▁새누리당	-11.307
▁총대주교	-11.307
이즈	-11.3074
다운	-11.3074
▁앱	-11.3074
▁법무부	-11.3078
▁몰리	-11.3079
MHz	-11.308
상황	-11.308
주민	-11.308
▁둥	-11.308
▁중독	-11.3081
소방서	-11.3082
▁운동은	-11.3083
▁바르샤바	-11.3084
達	-11.3084
▁자체는	-11.3084
루타	-11.3085
▁대통령을	-11.3088
▁튜	-11.309
▁360	-11.309
대륙	-11.309
▁불교의	-11.3091
場	-11.3092
▁스튜어트	-11.3092
곡동	-11.3093
샘	-11.3095
▁고려의	-11.3096
▁스콧	-11.3099
쾌	-11.3102
기독교	-11.3103
▁불리고	-11.3103
도리	-11.3105
車	-11.3106
리노	-11.3106
▁(2	-11.3108
▁수상한	-11.3109
영국	-11.3109
▁이루어지는	-11.3111
▁나누	-11.3112
▁85	-11.3112
▁드문	-11.3112
티나	-11.3112
que	-11.3113
토프	-11.3113
í	-11.3113
▁물리학자	-11.3113
▁삿포로	-11.3113
▁대위	-11.3115
갔으며	-11.3117
▁말리	-11.3118
▁연봉	-11.3119
▁조직이	-11.3119
▁수도인	-11.312
전의	-11.312
▁인가	-11.3121
(2014	-11.3123
통제	-11.3123
▁정한	-11.3126
▁la	-11.3127
▁키프로스	-11.3128
노선	-11.3128
미아	-11.3128
▁오고	-11.3131
Co	-11.3133
석으로	-11.3134
▁혼동	-11.3135
▁자사	-11.3135
▁어업	-11.3135
▁않	-11.3135
任	-11.3135
▁카나	-11.3137
▁얻	-11.3139
▁승강장이	-11.3143
학과를	-11.3143
▁하워드	-11.3144
▁조달	-11.3145
▁선정한	-11.3146
ling	-11.3146
▁우승한	-11.3148
▁대회의	-11.3151
▁기어	-11.3152
실에서	-11.3153
▁아레나	-11.3154
▁구간을	-11.3155
▁Ca	-11.3156
Wh	-11.3156
▁난징	-11.3157
▁외야수	-11.3157
▁부설	-11.3158
▁참가하는	-11.3158
▁적고	-11.3158
▁근원	-11.316
My	-11.3161
▁승격되었다	-11.3163
▁죽였다	-11.3163
▁오오	-11.3164
▁최대한	-11.3164
▁1880	-11.3164
기에는	-11.3164
▁최근의	-11.3164
▁센다이	-11.3165
▁별들	-11.3166
청은	-11.3167
▁아이유	-11.3167
▁뉴턴	-11.3168
▁신용	-11.3168
▁언니	-11.3168
너는	-11.3169
▁무기를	-11.3169
▁사회에서	-11.317
▁di	-11.3171
sen	-11.3174
▁근본	-11.3174
▁부천	-11.3176
▁돌격	-11.3179
▁벨라루스	-11.3179
서로	-11.3181
OL	-11.3181
▁끌었다	-11.3182
▁소유자	-11.3182
▁신설되었다	-11.3185
스로	-11.3186
▁98	-11.3187
▁경신	-11.3187
▁저하	-11.3189
내에서	-11.3189
ank	-11.3191
▁글로	-11.3192
▁탤런트	-11.3193
▁데이비스	-11.3194
▁의식을	-11.3195
▁만세	-11.3196
▁적합한	-11.3197
▁명제	-11.3198
실을	-11.3198
▁남동쪽	-11.3201
UN	-11.3201
스틱	-11.3202
▁급제하여	-11.3204
▁유죄	-11.3205
희는	-11.3206
▁존재가	-11.3207
길이	-11.3208
▁유수	-11.321
▁추측된다	-11.321
해지는	-11.321
▁일가	-11.3212
界	-11.3215
▁통틀어	-11.3215
鳳	-11.3215
▁작아	-11.3215
히라	-11.3215
놓은	-11.3216
박사	-11.3216
▁블로그	-11.3217
р	-11.322
특히	-11.3222
▁스트라	-11.3223
비에	-11.3224
▁협박	-11.3225
▁지방을	-11.3225
▁중에서는	-11.3226
▁방송사	-11.3226
▁주어진다	-11.3228
▁멜로디	-11.3229
▁3·1	-11.3229
▁말하면	-11.3232
▁의원이	-11.3234
▁북서부	-11.3235
▁유래했다	-11.3236
▁우드	-11.3236
▁막내	-11.3237
▁루트	-11.3238
바다	-11.3238
▁학업	-11.3238
▁목재	-11.324
▁참모	-11.3241
▁요청을	-11.3243
▁스핀	-11.3244
▁프랑크푸르트	-11.3244
▁프랭크	-11.3245
▁가마쿠라	-11.3245
▁동성애자	-11.3245
물리학	-11.3245
ID	-11.3246
▁앤드	-11.3246
▁게이트	-11.3248
min	-11.3248
▁해전	-11.3249
▁동형	-11.325
▁키스	-11.3251
▁물질을	-11.3251
▁승인을	-11.3251
메르	-11.3252
발을	-11.3253
쿠르	-11.3255
지리	-11.3255
▁팀으로	-11.3257
▁팽	-11.3257
빵	-11.3258
굿	-11.3258
▁치즈	-11.3258
▁긍정적인	-11.3259
阿	-11.3259
▁교수는	-11.3262
▁천문	-11.3262
가며	-11.3263
▁하트	-11.3264
▁애칭	-11.3264
▁접하며	-11.3265
▁공리	-11.3266
▁만나는	-11.3266
▁머무르	-11.3266
▁물러났다	-11.3267
▁머신	-11.3267
▁만남	-11.3268
해방	-11.327
▁아이스	-11.3272
▁직면	-11.3272
▁99	-11.3273
보기	-11.3275
차대전	-11.3276
▁헐	-11.3278
▁딸인	-11.328
렁	-11.3281
▁런던에서	-11.3281
hy	-11.3284
▁연산자	-11.3284
아스	-11.3285
▁기업인	-11.3285
▁루시	-11.3286
▁진공	-11.3286
▁서민	-11.3289
▁점성술	-11.3289
지금의	-11.329
▁폭동	-11.329
▁치안	-11.329
치아	-11.3291
▁장현	-11.3293
▁방식이다	-11.3293
(2008	-11.3293
▁최저	-11.3296
▁도리	-11.3296
za	-11.3297
작은	-11.3298
방위	-11.3298
▁분명히	-11.3299
▁컴백	-11.3299
▁투어를	-11.3299
▁올랐고	-11.3299
oo	-11.3301
▁구조물	-11.3303
▁속하며	-11.3303
朝鮮	-11.3303
▁로열	-11.3304
▁먹이를	-11.3305
▁유래된	-11.3306
고려	-11.3308
▁세상에	-11.3308
▁않음	-11.331
▁연수	-11.331
調	-11.3311
ye	-11.3311
▁상임	-11.3312
▁없어서	-11.3313
▁환원	-11.3313
▁화해	-11.3314
▁체류	-11.3314
▁만주국	-11.3315
▁과목	-11.3318
▁하라	-11.332
▁170	-11.332
▁옳	-11.3322
▁경우에도	-11.3323
플러	-11.3324
▁기능은	-11.3324
▁험	-11.3327
▁살해당	-11.3327
▁많으며	-11.3328
▁채워	-11.3328
▁의회의	-11.3329
▁러시아어	-11.3329
기계	-11.3329
현은	-11.333
▁어려워	-11.3333
▁시범	-11.3333
▁윤치호	-11.3335
▁엔딩	-11.3335
▁오라	-11.3337
▁DS	-11.3338
▁넘기	-11.3338
력으로	-11.3338
▁모로코	-11.3338
푸아	-11.3339
Mo	-11.3339
남부	-11.3339
▁월드컵에	-11.3339
▁Sp	-11.3339
▁어른	-11.334
▁바퀴	-11.334
▁결정되었다	-11.3341
▁설명한다	-11.3342
▁선언하였다	-11.3342
▁장미	-11.3344
▁무대에서	-11.3346
▁따른다	-11.3347
▁클레	-11.3347
▁최악의	-11.3348
▁인정하고	-11.3348
▁어머니가	-11.335
판매	-11.335
시리즈	-11.335
편에	-11.335
▁CJ	-11.335
▁누나	-11.3351
▁묶어	-11.3352
방을	-11.3352
▁해상에서	-11.3353
크리	-11.3354
툴	-11.3355
志	-11.3355
무장	-11.3355
안은	-11.3356
▁타원	-11.3356
▁인형	-11.3358
뷔	-11.3358
▁오노	-11.3359
▁색채	-11.3361
▁미상	-11.3362
▁적분	-11.3362
印	-11.3362
집행	-11.3362
▁탐험	-11.3364
▁진사	-11.3365
式	-11.337
▁봉안	-11.337
체육	-11.3371
▁국가에	-11.3373
가요	-11.3374
▁탑신	-11.3374
▁오스	-11.3374
졌	-11.3375
▁것인가	-11.3375
렸는데	-11.3376
vo	-11.3376
▁냉전	-11.3377
▁과학기술	-11.3379
▁도카이	-11.3379
례를	-11.338
▁On	-11.338
▁사용되지	-11.338
▁이진	-11.3382
▁특색	-11.3383
천여	-11.3384
치료	-11.3384
▁돼지	-11.3384
장이다	-11.3384
옌	-11.3385
м	-11.3385
▁띤다	-11.3387
▁주도로	-11.3389
▁낸다	-11.339
▁성사	-11.339
▁취하고	-11.339
▁응시	-11.3391
▁Do	-11.3393
즈가	-11.3394
▁공익	-11.3394
▁매입	-11.3395
▁수학적	-11.3397
▁도시가	-11.3398
▁평균자책점	-11.34
▁밀란	-11.34
개월간	-11.3402
FF	-11.3403
키는	-11.3404
▁페이스	-11.3405
▁폐기	-11.3406
▁개발자	-11.3411
▁삼국시대	-11.3411
▁알바	-11.3412
甲	-11.3414
▁충남	-11.3415
▁조용	-11.3419
대구	-11.3419
▁즉각	-11.342
신경	-11.3421
▁성취	-11.3421
▁외모	-11.3422
▁목소리를	-11.3422
▁구성원들	-11.3422
▁pro	-11.3423
▁불과하다	-11.3423
▁간접	-11.3425
▁강남구	-11.3425
▁청산	-11.3425
여자중학교	-11.3428
▁설도	-11.3428
ect	-11.3429
지기도	-11.3429
▁팀들	-11.3431
▁사고가	-11.3431
▁메르	-11.3431
▁할머니	-11.3433
ise	-11.3435
법칙	-11.3435
▁수령	-11.3435
▁작품에서	-11.3437
▁마찬가지	-11.3439
▁2.0	-11.344
▁꺼	-11.344
방울	-11.3441
▁관직을	-11.3442
받지	-11.3443
▁특징으로	-11.3444
꼴	-11.3445
▁착공	-11.3447
▁통증	-11.3447
▁법무	-11.3447
키타	-11.3448
▁디아	-11.3451
▁불어	-11.3452
錫	-11.3452
day	-11.3452
▁둥지	-11.3453
▁명사	-11.3454
각형	-11.3456
머니	-11.3457
▁국내외	-11.346
▁밀집	-11.3461
미는	-11.3462
▁황족	-11.3462
전략	-11.3463
濟	-11.3466
▁가죽	-11.3466
라크	-11.3467
등으로	-11.3469
▁기업이다	-11.3469
rea	-11.347
▁다음에	-11.3471
생명	-11.3471
▁작가들	-11.3471
▁사회학	-11.3472
▁고소	-11.3472
▁맵	-11.3473
▁적다	-11.3473
▁색을	-11.3475
만여	-11.3476
▁III	-11.3478
▁자신들	-11.3478
▁기록했고	-11.3479
들인	-11.348
▁숙청	-11.348
플리	-11.348
▁등용	-11.348
朱	-11.3482
츠는	-11.3482
▁대본	-11.3483
팝	-11.3483
▁감행	-11.3484
▁금메달	-11.3485
▁시즌이	-11.3485
해주	-11.3485
강전	-11.3485
▁존재하고	-11.3486
▁불을	-11.3488
▁조선일보	-11.3488
▁둘러	-11.3488
▁서식	-11.3489
~4	-11.349
▁대두	-11.349
▁말씀	-11.349
▁부분으로	-11.3492
▁잔류	-11.3492
▁개종	-11.3494
▁던지	-11.3494
▁결정된다	-11.3495
▁가장자리	-11.3496
슴	-11.35
▁설치하여	-11.35
▁광둥	-11.35
▁Ba	-11.35
센트	-11.35
▁선배	-11.3501
임이	-11.3502
▁경찰은	-11.3504
禪	-11.3504
캡	-11.3504
▁캐시	-11.3505
▁연세대학교	-11.3505
▁고장	-11.3507
▁시종	-11.3507
▁영상을	-11.3508
▁치러	-11.3508
▁연예인	-11.3508
▁대한민국에	-11.3511
▁왕은	-11.3511
▁광물	-11.3511
▁남기	-11.3511
▁그렇지만	-11.3511
▁카자흐스탄	-11.3512
▁제도가	-11.3514
▁연소	-11.3516
네르	-11.3517
▁포장	-11.3518
園	-11.3519
▁with	-11.352
▁카를로스	-11.352
▁네오	-11.3521
▁용어를	-11.3521
산이	-11.3522
▁결혼하였다	-11.3524
▁고유의	-11.3524
▁축적	-11.3526
▁욕	-11.3526
齋	-11.3527
▁생략	-11.3529
▁끊임없이	-11.3529
모어	-11.353
갔	-11.353
못	-11.3532
NS	-11.3534
▁드라이버	-11.3535
▁국제적인	-11.3536
▁어항	-11.3536
▁트위터	-11.3537
▁태양을	-11.3537
사전	-11.3538
▁제안을	-11.3538
▁설화	-11.354
ü	-11.3543
▁비전	-11.3544
▁세션	-11.3544
▁장례	-11.3546
층이	-11.3548
▁가깝다	-11.355
▁감동	-11.355
▁분비	-11.3551
▁일시	-11.3555
▁아니라고	-11.3556
잇	-11.3559
▁살리	-11.356
▁경연	-11.3561
Ar	-11.3562
▁개화	-11.3562
ys	-11.3562
▁보인	-11.3563
▁극동	-11.3563
▁가동	-11.3565
▁동위	-11.3565
―	-11.3565
▁소통	-11.3566
목을	-11.3569
▁전지	-11.357
▁일대에	-11.3571
▁차용	-11.3572
터는	-11.3572
▁머물렀다	-11.3573
▁오해	-11.3573
▁장면을	-11.3576
▁성명	-11.3578
▁밴드를	-11.358
團	-11.358
▁케네디	-11.358
▁표방	-11.3582
루아	-11.3583
리즘	-11.3583
▁나비	-11.3584
내고	-11.3586
▁역임하고	-11.3587
▁프레임	-11.3587
靈	-11.3588
ct	-11.3588
소에서	-11.3588
▁흔	-11.3588
▁밝히고	-11.3588
▁New	-11.3589
▁개발이	-11.3589
▁로이	-11.3589
사실	-11.359
DE	-11.3592
▁자격으로	-11.3593
▁폭행	-11.3593
▁유지하는	-11.3594
▁정교	-11.3594
▁정렬	-11.3596
▁날씨	-11.3596
할때	-11.3599
▁횡단	-11.3603
▁정전	-11.3606
▁법정동	-11.3607
▁자전	-11.3607
티브	-11.3607
▁다니엘	-11.3608
▁10%	-11.361
器	-11.361
▁후임으로	-11.3612
▁외의	-11.3612
▁전반에	-11.3614
위원회는	-11.3614
▁침투	-11.3615
▁움직임을	-11.3615
▁단계에서	-11.3617
▁대통령으로	-11.3617
라노	-11.3619
▁빌라	-11.3621
▁준주	-11.3621
▁전자기	-11.3621
하마	-11.3621
▁스코	-11.3622
▁필리프	-11.3622
▁초과	-11.3623
▁관광객	-11.3624
▁출시한	-11.3624
統	-11.3626
異	-11.3626
▁음악에	-11.3626
명령	-11.3627
▁이성계	-11.3628
▁고체	-11.3628
▁역사적인	-11.3629
▁동물의	-11.3629
▁그레고리오	-11.363
▁유사하다	-11.363
▁이지	-11.3631
~18	-11.3631
bu	-11.3632
졌던	-11.3632
▁아직까지	-11.3633
▁꽃은	-11.3633
μ	-11.3633
▁아제르바이잔	-11.3633
▁공간이	-11.3634
▁답변	-11.3636
▁구절	-11.3637
▁호출	-11.3637
▁규모로	-11.3639
주의의	-11.3639
▁콘크리트	-11.3641
ν	-11.3641
▁부채	-11.3642
▁한양	-11.3642
▁히트곡	-11.3643
▁증진	-11.3645
▁가축	-11.3646
▁가신	-11.3646
▁이경	-11.3647
▁용산	-11.3648
▁이유가	-11.3648
▁유소년	-11.3648
▁프톨레마이오스	-11.3648
▁심의	-11.3649
▁진출을	-11.365
▁배수	-11.3651
▁가고	-11.3651
▁차량이	-11.3651
▁늦	-11.3652
▁처음부터	-11.3653
콕	-11.3653
▁장군이	-11.3654
▁유동	-11.3654
망이	-11.3654
秦	-11.3656
節	-11.3656
▁주가	-11.3656
▁우라	-11.3657
▁담아	-11.3658
▁구분된다	-11.3659
▁대거	-11.366
▁데모	-11.366
민의	-11.3661
▁북한군	-11.3661
아라	-11.3661
▁탐색	-11.3662
▁신하	-11.3662
▁마그	-11.3662
우의	-11.3663
務	-11.3664
▁School	-11.3664
프스키	-11.3664
리얼	-11.3664
▁딸로	-11.3664
▁무라	-11.3667
안이	-11.3668
▁북쪽의	-11.3668
▁대한민국과	-11.3669
터스	-11.3669
▁미션	-11.367
▁시대부터	-11.3671
▁에콰도르	-11.3671
▁각색	-11.3672
아노	-11.3673
▁지나면서	-11.3673
▁장관을	-11.3673
테크	-11.3674
▁노동조합	-11.3674
▁에리	-11.3674
▁부유한	-11.3677
우지	-11.3678
▁NC	-11.3678
▁북동쪽	-11.3682
▁뇌물	-11.3682
레이터	-11.3683
▁기초로	-11.3684
라르	-11.3686
▁챌린지	-11.3687
▁컬럼비아	-11.3687
현을	-11.3687
▁지니	-11.3687
▁신조	-11.3689
▁해명	-11.3691
▁비단	-11.3691
경기장	-11.3691
▁빛이	-11.3691
▁저주	-11.3692
▁라오스	-11.3692
▁유학을	-11.3694
▁우유	-11.3695
▁적대	-11.3695
▁키우	-11.3695
_13	-11.3696
리티	-11.3698
▁카프	-11.3698
위와	-11.3702
났	-11.3703
▁연극배우	-11.3704
▁모친	-11.3704
끔	-11.3705
▁1889	-11.3706
▁자금을	-11.3706
▁이윤	-11.3706
절차	-11.3708
▁원본	-11.3711
▁비문	-11.3711
SE	-11.3711
IR	-11.3713
▁재선	-11.3714
▁훈장	-11.3714
▁아예	-11.3714
▁시장에	-11.3714
▁영동	-11.3715
갈색	-11.3715
수단	-11.3716
с	-11.3717
現	-11.3717
▁옵션	-11.3718
GA	-11.3718
▁테이프	-11.3718
평군	-11.3719
▁김병	-11.372
▁철회	-11.372
척의	-11.3723
리언	-11.3724
▁노드	-11.3724
▁본거지	-11.3725
▁영화에서	-11.3727
실점	-11.3727
▁함으로써	-11.3728
▁터치	-11.3728
▁기사를	-11.3729
▁라이언	-11.3729
예를	-11.3729
▁비율	-11.3729
뚝	-11.373
▁76	-11.3732
▁돼	-11.3732
▁상원의원	-11.3734
▁오렌지	-11.3735
▁용도	-11.3736
▁우승에	-11.3736
▁만화가	-11.3736
닉스	-11.3736
▁이룬	-11.3737
▁와카	-11.3737
ev	-11.3738
▁아돌프	-11.3741
▁즐겨	-11.3741
▁is	-11.3741
▁왕권	-11.3741
▁플래시	-11.3742
▁즉위한	-11.3743
▁소모	-11.3744
▁대표이사	-11.3744
▁사회를	-11.3744
펑	-11.3745
더니	-11.3745
▁속도는	-11.3745
ara	-11.3746
▁주사	-11.3746
豊	-11.3748
▁원인은	-11.3749
▁결과에	-11.375
▁키보드	-11.3751
▁이루며	-11.3753
▁적혀	-11.3754
yn	-11.3755
▁도요토미	-11.3756
▁공부를	-11.3758
▁껍질	-11.3758
▁설명했다	-11.3758
▁마음에	-11.3758
▁황제로	-11.3759
NO	-11.3762
궤도	-11.3762
▁학자들은	-11.3763
▁개관	-11.3763
▁군정	-11.3763
스트리	-11.3763
▁먼지	-11.3764
명이었다	-11.3765
▁역에	-11.3767
▁이복	-11.3767
▁마음이	-11.3768
원에서	-11.3768
▁설치하고	-11.377
통합	-11.3772
▁한국방송공사	-11.3772
▁내용으로	-11.3772
▁기요	-11.3772
LA	-11.3772
▁Un	-11.3772
▁대학교에	-11.3773
▁그들에게	-11.3773
▁뒷면	-11.3774
▁조종사	-11.3774
▁산란	-11.3774
▁대치	-11.3775
▁이때부터	-11.3777
▁연도	-11.3777
미치	-11.3777
▁아카데미상	-11.3778
▁체중	-11.3778
▁흥선대원군	-11.3779
my	-11.378
▁대통령에	-11.3782
▁측의	-11.3782
▁시골	-11.3782
▁벌어졌다	-11.3783
크가	-11.3783
▁드물게	-11.3783
레이드	-11.3784
net	-11.3785
바흐	-11.3785
▁가벼운	-11.3787
▁물의	-11.3787
▁뚜렷한	-11.3788
▁발견하였다	-11.3789
편을	-11.379
van	-11.3792
▁표면에	-11.3793
▁과거에는	-11.3793
국에	-11.3794
д	-11.3795
愛	-11.3795
▁그만	-11.3797
▁버전의	-11.3798
▁있기도	-11.3799
냈고	-11.3799
▁넣는	-11.3801
▁블라디미르	-11.3802
ι	-11.3802
▁갖추	-11.3803
▁지부	-11.3804
관광	-11.3805
받을	-11.3806
▁서자	-11.3806
▁일어났	-11.3807
▁수련	-11.3809
강에서	-11.381
▁알려지게	-11.3811
▁빨간색	-11.3813
▁북부의	-11.3814
▁시켜	-11.3815
▁기초를	-11.3815
▁우승자	-11.3816
if	-11.3817
▁당악	-11.3817
▁제네바	-11.3818
▁섬은	-11.3818
▁상법	-11.382
왔지만	-11.3822
▁내부에서	-11.3823
▁스틸	-11.3824
설이	-11.3825
▁백제의	-11.3826
▁바깥쪽	-11.3827
▁갱신	-11.383
▁유방	-11.383
지점	-11.383
▁조약에	-11.3831
받는다	-11.3831
깃	-11.3831
듀	-11.3831
▁획득한	-11.3832
▁가군	-11.3833
강의	-11.3834
자들과	-11.3834
마크	-11.3835
▁대가	-11.3835
사업을	-11.3836
▁대승	-11.3837
▁차량은	-11.3838
▁표기법	-11.3839
▁넓게	-11.384
▁가지가	-11.384
▁진행되고	-11.3841
▁나올	-11.3843
▁떨어지는	-11.3845
▁데뷔한	-11.3846
▁설치한	-11.3847
▁기고	-11.3848
▁비틀즈	-11.3849
▁사헌부	-11.3849
▁봉건	-11.385
(2005	-11.385
▁필수	-11.3852
니의	-11.3852
투어	-11.3852
▁하프	-11.3853
▁미하일	-11.3857
▁옹립	-11.3858
▁도와주	-11.386
▁도입하였다	-11.386
단과	-11.386
▁하단	-11.3861
▁Ha	-11.3861
륨	-11.3861
▁킨	-11.3862
▁군대에	-11.3862
▁타구	-11.3862
▁질문	-11.3863
▁줄거리	-11.3863
▁공격에	-11.3864
▁이끈	-11.3864
▁평범한	-11.3865
▁신념	-11.3867
eg	-11.3867
▁이적했다	-11.3872
▁구할	-11.3873
▁3,000	-11.3874
색으로	-11.3874
미나	-11.3875
▁아버지를	-11.3876
▁교통국	-11.3876
IT	-11.3877
-21	-11.3877
lic	-11.3877
▁용도로	-11.3877
▁비평	-11.3879
▁형태이다	-11.388
▁벼	-11.388
▁정치적인	-11.3882
심이	-11.3883
▁SA	-11.3883
질서	-11.3884
숙종	-11.3885
▁무료로	-11.3886
≫	-11.3888
▁관현악	-11.3889
▁충성	-11.3889
됐	-11.3889
아가	-11.389
ire	-11.3894
▁추세	-11.3895
▁아야	-11.3895
률이	-11.3895
儀	-11.3896
▁땄다	-11.3896
▁성우이다	-11.3897
▁음악의	-11.3903
商	-11.3904
▁디자인을	-11.3904
전시	-11.3905
▁사망하자	-11.3906
화되었다	-11.3906
▁북서쪽으로	-11.3906
▁차이는	-11.3907
있었다	-11.3908
▁민족의	-11.3908
박스	-11.3909
▁우주의	-11.3911
포르	-11.3911
▁1871	-11.3913
티드	-11.3914
▁연결된다	-11.3916
▁향하는	-11.3917
▁전략적	-11.3919
▁알코올	-11.3919
▁따온	-11.3921
▁게임에서	-11.3921
국인	-11.3922
▁만족시키는	-11.3923
층으로	-11.3923
▁토양	-11.3925
▁규모는	-11.3925
매치	-11.3926
▁사용자들	-11.3927
▁김정일	-11.3927
▁신축	-11.3929
▁주민들은	-11.3929
▁이식	-11.3931
▁기아	-11.3934
百	-11.3935
仙	-11.3935
▁금요일	-11.3936
남동	-11.3937
▁교단	-11.3938
▁오사카부	-11.3939
▁용인시	-11.3939
위까지	-11.394
Pa	-11.3942
터가	-11.3943
하임	-11.3943
▁닦	-11.3943
▁주민들이	-11.3945
들리	-11.3945
▁확실히	-11.3946
▁에디	-11.3947
▁50%	-11.3948
▁뒷받침	-11.3951
Th	-11.3955
▁죽인	-11.3956
▁Car	-11.3956
▁암시	-11.3956
▁석탑	-11.3957
▁우측	-11.3957
▁환경에	-11.3958
AF	-11.3958
▁두개골	-11.3959
▁햄	-11.396
▁당일	-11.396
▁섬이다	-11.3961
▁일대를	-11.3962
▁붙였다	-11.3962
▁상표	-11.3963
▁그리스도의	-11.3963
▁독립적인	-11.3964
▁남서부	-11.3965
▁Mi	-11.3965
關	-11.3967
▁프란츠	-11.3968
▁술을	-11.3969
▁재미	-11.397
▁계획이다	-11.3971
공이	-11.3972
▁잡았다	-11.3972
▁보게	-11.3973
흑	-11.3973
통을	-11.3976
▁삼촌	-11.3976
▁부피	-11.3976
▁모두가	-11.3977
▁축조	-11.3977
▁깃	-11.3977
▁음료	-11.3978
▁되지만	-11.3978
ze	-11.3978
▁스파	-11.3978
▁KIA	-11.3979
▁트로이	-11.398
어족	-11.398
▁베니	-11.3982
술을	-11.3982
沈	-11.3982
▁노태우	-11.3982
▁잡혀	-11.3984
▁컬	-11.3984
▁기다리	-11.3985
적이지	-11.3986
▁입단했다	-11.3987
▁김현	-11.3988
▁질서	-11.3988
▁신학교	-11.3989
케라톱스	-11.399
▁된다는	-11.3991
▁원반	-11.3992
▁스트레스	-11.3992
han	-11.3993
▁조인	-11.3993
▁더이상	-11.3993
▁투르크	-11.3996
▁것임을	-11.3996
fer	-11.3997
▁해당된다	-11.3997
▁""	-11.3998
▁건담	-11.4001
▁2-1	-11.4003
▁고양시	-11.4005
▁선을	-11.4006
▁그밖에	-11.4006
▁쾌속	-11.4006
카쓰	-11.4007
▁전속	-11.4008
▁단행	-11.4009
Con	-11.4011
▁남매	-11.4013
sta	-11.4013
▁취임하였다	-11.4014
▁가을에	-11.4014
흠	-11.4014
관찰사	-11.4014
▁순회	-11.4014
▁문구	-11.4015
▁준수	-11.4019
▁목표는	-11.4019
▁헤비	-11.4019
▁안토니오	-11.402
▁고개	-11.402
▁스스로를	-11.4021
DP	-11.4022
伯	-11.4022
츄	-11.4022
▁분명	-11.4023
▁당연히	-11.4023
▁처녀	-11.4023
▁끓	-11.4027
▁동문	-11.4028
램	-11.4029
빗	-11.4029
자본	-11.4029
工	-11.403
://	-11.403
▁바뀌어	-11.403
▁피하기	-11.4031
tal	-11.4031
▁임관	-11.4032
▁미소	-11.4032
▁96	-11.4033
▁일관	-11.4034
▁상해	-11.4034
▁위쪽	-11.4034
▁회수	-11.4035
▁요구를	-11.4035
▁북동쪽으로	-11.4035
브르	-11.4035
나미	-11.4035
▁넓	-11.4036
궐	-11.4037
▁77	-11.4037
▁짙은	-11.4038
tri	-11.404
▁위나라	-11.404
▁동치	-11.4041
н	-11.4041
▁선출된	-11.4042
▁걸리	-11.4043
군에게	-11.4043
해군	-11.4044
▁남서쪽	-11.4044
▁하락	-11.4045
율을	-11.4045
랑이	-11.4045
▁퀘벡	-11.4046
佐	-11.4046
▁담당했다	-11.4046
▁쳐들어	-11.4046
▁결혼하여	-11.4046
▁철도가	-11.4047
류가	-11.4047
▁st	-11.4048
▁압력을	-11.4049
위성	-11.4049
▁손권	-11.4052
▁기여했다	-11.4053
꼬	-11.4053
물은	-11.4054
造	-11.4054
▁홍문관	-11.4054
▁반격	-11.4056
베르트	-11.4057
▁설명하는	-11.4058
크라	-11.4058
▁마을의	-11.4059
TF	-11.4061
ä	-11.4062
▁옮긴	-11.4062
▁일이다	-11.4063
잡지	-11.4064
▁협상을	-11.4064
▁프로게이머	-11.4065
▁깃발	-11.4069
▁되어있다	-11.407
마력	-11.4073
▁베어	-11.4073
▁지냈고	-11.4074
▁것들이	-11.4075
▁그레	-11.4075
▁회의를	-11.4079
▁반지름	-11.4079
▁성문	-11.4079
▁남원	-11.408
▁창시자	-11.4081
▁오이	-11.4081
▁천재	-11.4082
▁바실리	-11.4083
▁붙여진	-11.4084
▁비판이	-11.4085
▁전체적인	-11.4085
▁안에는	-11.4087
▁충청도	-11.4088
▁사카이	-11.4088
▁읽는	-11.4089
▁별은	-11.409
혹은	-11.409
▁영향이	-11.409
▁자이	-11.4091
▁때에도	-11.4091
▁팀과	-11.4093
Mar	-11.4096
▁동학	-11.4096
▁고시	-11.4097
▁향악	-11.4097
▁먹을	-11.4099
▁방안	-11.41
御	-11.4101
▁음악과	-11.4102
▁초신성	-11.4102
▁공용어	-11.4102
rand	-11.4103
▁것만	-11.4103
▁미키	-11.4103
▁당원	-11.4104
▁IS	-11.4105
공파	-11.4105
▁소매	-11.4107
▁팔리	-11.4108
熙	-11.4109
▁월요일	-11.4111
▁복소수	-11.4112
관과	-11.4112
▁데스	-11.4115
▁시위대	-11.4115
▁광학	-11.4116
▁시상식	-11.4117
▁갈등을	-11.4117
▁남동생	-11.4118
고자	-11.4119
▁크리스티안	-11.412
▁고래	-11.412
▁최강	-11.4123
산초등학교	-11.4125
EL	-11.4126
워스	-11.4127
▁뒤이어	-11.4127
▁경찰서	-11.4128
▁반도체	-11.4128
校	-11.4129
▁원로원	-11.4129
▁본사를	-11.4133
▁매카트니	-11.4133
識	-11.4133
▁Qu	-11.4134
▁단절	-11.4135
▁프로그램에	-11.4139
▁손으로	-11.4139
▁개념으로	-11.4139
경은	-11.4141
▁후임	-11.4141
팩	-11.4142
▁거주지	-11.4143
▁주목할	-11.4143
▁타이베이	-11.4144
▁준우승을	-11.4144
현이	-11.4145
▁코드를	-11.4146
재를	-11.4146
▁차지하며	-11.4147
▁한성	-11.4147
▁결함	-11.4148
▁서신	-11.4148
▁경계로	-11.4149
▁적어	-11.4151
▁구미	-11.4151
▁정계	-11.4151
바나	-11.4153
흡	-11.4154
▁실패한	-11.4154
▁외관	-11.4154
▁카우	-11.4157
亭	-11.4158
Bo	-11.4158
▁파라과이	-11.4158
▁카리브	-11.4159
기기	-11.4161
펙	-11.4161
▁비밀리에	-11.4162
▁한국시리즈	-11.4162
▁감독과	-11.4162
將軍	-11.4165
▁지주	-11.4165
▁저기압	-11.4166
▁상상	-11.4166
시카	-11.4167
▁바꾸고	-11.4168
▁동정	-11.4169
▁특집	-11.417
▁부회장	-11.4171
▁관련한	-11.4172
내기	-11.4173
▁다녔다	-11.4174
▁결정한다	-11.4175
싸	-11.4177
▁적자	-11.4177
▁표현하는	-11.4179
▁한미	-11.4181
령으로	-11.4182
▁모서리	-11.4183
cal	-11.4184
▁이남	-11.4185
▁몸이	-11.4185
줘	-11.4186
▁올리고	-11.4186
▁싱어송라이터	-11.4187
qui	-11.4187
서도	-11.4188
▁안티	-11.4188
만화	-11.4189
大夫	-11.4191
것이	-11.4191
비오	-11.4192
운수	-11.4194
▁보호를	-11.4194
▁달이	-11.4196
line	-11.4197
▁돌입	-11.4197
▁하야	-11.4198
▁장기간	-11.42
▁아홉	-11.4201
▁1800	-11.4201
▁묘역	-11.4202
ons	-11.4202
▁천장	-11.4204
▁지리	-11.4204
▁탱크	-11.4207
orn	-11.4208
▁판본	-11.4209
▁정의한다	-11.4209
▁퇴역	-11.421
▁별칭	-11.4211
▁서유럽	-11.4212
▁다항식	-11.4214
eat	-11.4215
▁보석	-11.4216
▁케냐	-11.4217
타워	-11.422
▁이집트의	-11.4222
▁표현을	-11.4222
ы	-11.4222
(2001	-11.4223
사르	-11.4223
딜	-11.4224
▁보유한	-11.4225
렸	-11.4226
▁고등학교를	-11.4227
▁주장은	-11.4228
점의	-11.4229
▁차이로	-11.4231
(2004	-11.4231
▁드래프트에서	-11.4231
▁이루어지지	-11.4232
▁봉쇄	-11.4233
각을	-11.4233
▁품종	-11.4234
▁슈팅	-11.4235
▁리베	-11.4236
▁병으로	-11.4237
▁아일랜드의	-11.4237
▁지키는	-11.4237
▁암호화	-11.4238
▁장군의	-11.424
▁복음	-11.424
▁윤리	-11.4241
▁시드	-11.4241
▁않았	-11.4242
▁노르웨이의	-11.4243
▁관람	-11.4245
▁아무도	-11.4245
▁통보	-11.4246
선교	-11.4247
건축	-11.4247
▁아담	-11.4248
▁기각	-11.4248
▁기존에	-11.4248
▁곡들	-11.4249
▁김창	-11.425
펠트	-11.425
▁수단으로	-11.4251
▁형성한다	-11.4251
▁워터	-11.4252
族	-11.4253
소녀	-11.4254
▁이를테면	-11.4255
▁아버지인	-11.4255
▁기저	-11.4256
▁해역	-11.4256
되었	-11.4256
▁그루	-11.4259
왔는데	-11.426
▁입상	-11.426
▁MP	-11.4262
勝	-11.4263
렸으나	-11.4263
▁발칸	-11.4264
▁무늬	-11.4266
▁Ex	-11.4266
소로	-11.4271
-11	-11.4272
▁헌법재판소	-11.4272
▁달한다	-11.4274
년대까지	-11.4274
▁함선	-11.4277
▁언어의	-11.4278
▁룩셈부르크	-11.4279
▁출토	-11.4282
OC	-11.4283
▁구와	-11.4287
▁쓰촨	-11.4287
▁교원	-11.4288
Don	-11.4288
▁중복	-11.4291
▁시위를	-11.4291
▁받았지만	-11.4293
▁그곳에	-11.4294
▁드라	-11.4294
▁맡기	-11.4296
▁서열	-11.4297
▁폼	-11.4297
▁부분의	-11.4297
이하	-11.4299
IG	-11.4299
▁박스	-11.43
▁본관	-11.4301
▁기리기	-11.4302
이든	-11.4302
▁아폴로	-11.4303
▁팀에서	-11.4304
▁여성들	-11.4305
▁시체	-11.4305
▁과도	-11.4311
▁관리를	-11.4311
세손	-11.4312
수학	-11.4313
했는지	-11.4313
▁역사에	-11.4314
▁제치고	-11.4315
헝가리	-11.4315
▁생식	-11.4315
▁동일하다	-11.4316
▁캘	-11.4317
▁필터	-11.4318
▁호응	-11.4318
▁작업에	-11.4319
竹	-11.432
▁사운드트랙	-11.432
▁함부르크	-11.4321
▁나뉘	-11.4322
▁조반니	-11.4323
▁상경	-11.4323
▁프로그램으로	-11.4323
▁다운	-11.4324
▁취미	-11.4324
▁쌓은	-11.4326
▁선과	-11.4326
공의	-11.4327
▁받침	-11.4327
▁텔레	-11.4327
▁가라	-11.4328
▁볼리비아	-11.4328
榮	-11.4328
▁정리한	-11.4329
ini	-11.433
▁주오	-11.4331
▁패한	-11.4331
▁타격을	-11.4332
즈미	-11.4333
▁희생자	-11.4333
토미	-11.4334
▁해마다	-11.4335
▁건설되었다	-11.4336
加	-11.4336
▁알루미늄	-11.4336
보병사단	-11.4336
부원군	-11.4336
▁암흑	-11.4337
▁Gu	-11.4338
▁be	-11.434
▁거처	-11.434
▁사살	-11.4341
시대에	-11.4341
▁방면으로	-11.4341
▁경향을	-11.4342
회전	-11.4344
▁진행하고	-11.4344
▁문제의	-11.4345
▁위험한	-11.4347
▁역의	-11.4349
▁1885	-11.435
슈퍼	-11.435
▁장례식	-11.435
인물	-11.4351
▁출신인	-11.4351
▁1870	-11.4355
▁문서를	-11.4355
▁통용	-11.4357
▁맥주	-11.4359
▁사육	-11.4359
롭게	-11.436
한테	-11.436
遺	-11.4361
烈	-11.4361
▁전력을	-11.4361
▁그릇	-11.4361
▁생겨나	-11.4361
~8	-11.4363
▁동년	-11.4363
▁각지에서	-11.4363
▁대성	-11.4365
획	-11.4365
▁건축물이다	-11.4367
▁자선	-11.4368
▁도덕적	-11.4368
▁옌	-11.4369
였을	-11.437
토가	-11.437
수준	-11.4371
▁짓는	-11.4372
▁마블	-11.4373
▁여당	-11.4373
▁인민군	-11.4375
렇	-11.4376
▁카스	-11.4376
▁다케다	-11.4376
處	-11.4377
▁추증	-11.4379
루를	-11.438
▁평가된다	-11.4381
▁역학	-11.4381
▁안치	-11.4383
▁물자	-11.4383
▁제곱	-11.4385
▁평안북도	-11.4385
▁아이디얼	-11.4385
▁핵무기	-11.4386
▁소프트	-11.4389
tr	-11.4389
祭	-11.4393
▁문자를	-11.4393
었다고	-11.4395
판의	-11.4395
스틴	-11.4397
▁원천	-11.4397
▁품고	-11.4399
아마	-11.44
▁들어갈	-11.4401
▁레바논	-11.4402
~7	-11.4402
_15	-11.4403
▁래퍼	-11.4405
리로	-11.4406
▁딜	-11.4406
쁘	-11.4407
▁취약	-11.4407
▁남미	-11.4408
▁해고	-11.4408
室	-11.441
益	-11.441
▁연고지	-11.4411
▁규범	-11.4412
▁갈수록	-11.4412
▁전문가들	-11.4413
▁소속팀	-11.4413
▁뒤쪽	-11.4414
arch	-11.4414
▁파산	-11.4415
▁배려	-11.4415
▁무어	-11.4416
▁패널	-11.442
랙	-11.4421
▁청동	-11.4421
▁중앙부	-11.4421
▁중요성	-11.4422
▁파일을	-11.4423
▁비율이	-11.4424
="	-11.4425
遠	-11.4426
▁포스	-11.4427
▁좌측	-11.4428
▁정신을	-11.4428
▁객관적	-11.4429
▁효력	-11.4429
▁기증	-11.4431
쿠니	-11.4432
▁기록으로	-11.4432
▁축성	-11.4432
▁히어로즈	-11.4433
산으로	-11.4434
▁수확	-11.4434
▁셰익스피어	-11.4435
▁방사선	-11.4435
▁벌어	-11.4436
▁승자	-11.4437
▁엔진은	-11.4438
▁램	-11.4438
▁수료	-11.4439
▁과정이	-11.4442
判	-11.4442
▁예배	-11.4444
▁뽑아	-11.4446
극단	-11.4448
▁남동쪽으로	-11.4451
▁비공식	-11.4451
出	-11.4451
▁거울	-11.4452
내용	-11.4453
~6	-11.4453
헤드	-11.4453
▁열린다	-11.4454
빌리	-11.4455
▁나머지는	-11.4455
겼	-11.4456
▁견해를	-11.4456
▁본인의	-11.4457
▁갖지	-11.4458
▁택시	-11.4458
주의는	-11.4458
신은	-11.4459
▁업계	-11.446
▁알지	-11.446
생물	-11.446
▁더욱이	-11.4461
▁se	-11.4462
▁듀오	-11.4464
▁유닉스	-11.4464
▁행사를	-11.4466
▁정에	-11.4466
▁부근에서	-11.4466
▁순조	-11.4466
▁높게	-11.4466
넥	-11.4468
▁때문이라고	-11.4468
것을	-11.4469
▁북경	-11.447
되나	-11.447
▁지능	-11.4471
▁주위를	-11.4471
툼	-11.4472
▁북극	-11.4472
왕을	-11.4473
오고	-11.4474
층을	-11.4476
▁시선	-11.4476
▁하우	-11.4477
▁스티	-11.4477
세기경	-11.4478
참모	-11.4478
지역에	-11.448
▁회장을	-11.4481
▁위치는	-11.4482
▁증후군	-11.4484
氣	-11.4484
▁광저우	-11.4487
라트	-11.4488
▁언급한	-11.449
▁방문한	-11.449
▁진출한	-11.4491
解	-11.4493
▁등극	-11.4493
▁뒤에도	-11.4493
▁방사성	-11.4493
▁머리에	-11.4494
세기까지	-11.4494
▁대패	-11.4495
▁퇴임	-11.4495
▁교양	-11.4496
▁후작	-11.4496
▁요소들	-11.4498
▁미쳤다	-11.4499
▁물어	-11.45
▁무성	-11.4502
▁바리	-11.4503
▁1892	-11.4503
소와	-11.4504
▁프로덕션	-11.4505
▁101	-11.4508
올라	-11.4508
▁했을	-11.4508
受	-11.4509
▁Music	-11.451
CI	-11.4512
▁상소를	-11.4513
▁67	-11.4514
해양	-11.4516
low	-11.4517
姜	-11.4518
▁복음서	-11.4519
▁중엽	-11.4519
▁버리	-11.4519
오가	-11.452
▁성운	-11.4521
▁메시지를	-11.4522
시경	-11.4523
▁단축	-11.4525
고등보통학교	-11.4526
▁조세	-11.4527
▁구멍	-11.4527
카는	-11.4527
당과	-11.4527
▁5,000	-11.4528
입자	-11.4531
훈장	-11.4532
▁나타나고	-11.4533
夏	-11.4534
▁전적	-11.4535
▁발원	-11.4536
▁관직에	-11.4536
▁대변	-11.4537
▁완벽한	-11.4539
▁매달	-11.4539
▁성도	-11.454
유지	-11.4541
시나	-11.4541
씨를	-11.4541
▁학자들	-11.4542
주택	-11.4545
▁앨범인	-11.4547
▁기금	-11.4548
시에는	-11.4548
▁산출	-11.4549
▁고산	-11.455
▁하차	-11.455
動	-11.4551
郎	-11.4551
▁휴대	-11.4553
▁교과서	-11.4553
▁미즈	-11.4553
▁물질의	-11.4554
니크	-11.4554
▁막는	-11.4555
▁창고	-11.4558
▁이야기는	-11.4559
▁성체	-11.4559
식품	-11.4561
▁금산	-11.4561
▁예하	-11.4563
▁울리	-11.4563
▁생물학	-11.4563
car	-11.4563
여개	-11.4564
(2015	-11.4564
▁기술적	-11.4564
그는	-11.4566
▁질량이	-11.4566
tro	-11.4567
▁번성	-11.4567
▁생산량	-11.4569
▁네팔	-11.4571
▁민영	-11.4571
▁프라하	-11.4571
▁전체에	-11.4572
▁이론의	-11.4572
▁상행	-11.4573
▁...	-11.4573
▁전역에	-11.4574
ning	-11.4574
▁잡은	-11.4574
▁나가는	-11.4575
▁천문대	-11.4575
친다	-11.4576
▁학계	-11.4576
▁이어진	-11.4578
▁스마트	-11.4579
▁입원	-11.458
▁분출	-11.4583
起	-11.4584
晉	-11.4584
▁몬스터	-11.4588
경이	-11.4591
NH	-11.4592
▁숙부	-11.4592
▁제목의	-11.4593
▁낳은	-11.4593
▁시중	-11.4595
▁사바	-11.4595
▁We	-11.4596
▁살았던	-11.4596
▁요원	-11.4597
▁다양성	-11.4597
▁고통을	-11.4598
val	-11.4599
▁EC	-11.4599
▁이룩	-11.4601
橋	-11.4601
▁보헤미아	-11.4601
鍾	-11.4601
▁관장	-11.4602
ef	-11.4603
▁친선	-11.4604
by	-11.4605
▁시기를	-11.4607
Be	-11.4607
▁카트	-11.4608
▁경찰에	-11.4608
문학상	-11.4608
Li	-11.461
▁중도	-11.461
▁섭	-11.4611
▁투수로	-11.4612
▁결정하였다	-11.4613
▁충전	-11.4614
▁괴물	-11.4615
%	-11.4616
gn	-11.4617
및	-11.4617
▁시상	-11.4618
ink	-11.4619
▁오른손	-11.462
해졌고	-11.4621
▁파란색	-11.4622
▁임명된	-11.4624
mp	-11.4624
떨	-11.4626
▁센고쿠	-11.4626
산에	-11.4626
▁레온	-11.4627
▁패배를	-11.4628
보스	-11.463
▁일파	-11.463
▁흔들	-11.4631
▁어뢰	-11.4633
▁피로	-11.4633
정책을	-11.4634
관련	-11.4636
▁호랑이	-11.4639
켜	-11.464
▁1-0	-11.464
▁수원시	-11.4641
}	-11.4642
▁존재할	-11.4642
▁프로젝트를	-11.4643
▁종속	-11.4643
▁콜로라도	-11.4643
태종	-11.4644
종류	-11.4644
▁≪	-11.4644
▁난민	-11.4646
땅	-11.4647
▁부를	-11.4648
▁임원	-11.4648
So	-11.4649
아와	-11.4649
▁대변인	-11.4649
▁공격했다	-11.465
▁딘	-11.4651
바리	-11.4651
▁동아	-11.4652
鐵	-11.4652
▁시뮬레이션	-11.4652
모든	-11.4652
able	-11.4653
▁Lo	-11.4656
▁값이	-11.4658
▁유진	-11.4659
▁딸이	-11.466
▁타인	-11.466
▁초빙	-11.4661
▁다니는	-11.4662
▁시작하였으며	-11.4663
▁제국과	-11.4664
영이	-11.4666
▁케빈	-11.4667
▁확	-11.4669
▁오피스	-11.467
▁싸워	-11.467
▁얼굴을	-11.467
과정을	-11.4671
▁줄무늬	-11.4671
▁전당	-11.4671
론에서	-11.4672
리온	-11.4672
▁온도가	-11.4672
ET	-11.4672
▁한스	-11.4673
연방	-11.4674
공동	-11.4675
▁수색	-11.4675
▁구경	-11.4676
▁위키	-11.4677
▁1863	-11.4678
▁이론에	-11.4679
▁짐작	-11.468
푸르	-11.468
▁대가로	-11.468
▁인터내셔널	-11.4681
▁댄	-11.4681
▁해결하기	-11.4682
▁확실한	-11.4683
▁재무	-11.4684
▁요코	-11.4684
▁자료가	-11.4687
▁몫	-11.4688
운동에	-11.4688
▁여주	-11.4689
▁여성이	-11.4689
▁후속작	-11.4691
▁나타내고	-11.4691
▁미라	-11.4692
▁결선	-11.4692
▁함자	-11.4693
▁플라스틱	-11.4694
▁도입된	-11.4695
▁아시안컵	-11.4696
여행	-11.4698
▁Time	-11.4698
니오	-11.4699
▁나중에는	-11.4701
▁성남시	-11.4702
▁조언	-11.4702
▁근무했다	-11.4704
▁섞	-11.4705
EM	-11.4706
▁개발하고	-11.4706
▁선발로	-11.4706
▁일하는	-11.4706
▁산하의	-11.4706
고도	-11.4709
▁동참	-11.4709
▁이병	-11.4709
▁약자	-11.471
씨와	-11.4714
▁누이	-11.4715
▁거란	-11.4716
▁군함	-11.4716
(2016	-11.4717
▁닉	-11.4717
▁들은	-11.4718
▁재계약	-11.4718
侍	-11.4719
시켰으며	-11.4719
▁킬로미터	-11.472
▁사람도	-11.472
lus	-11.4721
뱅	-11.4721
_14	-11.4723
▁소생	-11.4725
▁안드레	-11.4727
▁리틀	-11.4729
▁슬라브	-11.4729
겠	-11.473
비와	-11.4731
▁그후	-11.4731
▁주장하며	-11.4732
▁2.5	-11.4732
▁단어는	-11.4732
▁욕구	-11.4733
기자	-11.4733
▁만일	-11.4734
▁흔한	-11.4735
▁팜	-11.4735
줌	-11.4736
다람쥐	-11.4736
소에	-11.4736
훼	-11.4736
恩	-11.4737
▁우르	-11.4738
▁거북	-11.4739
율은	-11.4743
개씩	-11.4743
▁Sch	-11.4743
▁옐	-11.4744
질량	-11.4744
▁종의	-11.4745
▁남작	-11.4747
▁맺은	-11.4747
▁정치적으로	-11.4749
자치	-11.475
SU	-11.4751
▁헨	-11.4752
▁실권	-11.4753
▁꼭짓점	-11.4754
▁함양	-11.4755
팀은	-11.4756
▁남서쪽으로	-11.4757
▁올리는	-11.4758
▁가져온	-11.4759
▁동조	-11.4759
▁동생인	-11.476
▁비치	-11.476
▁사상자	-11.4762
▁박탈	-11.4762
▁조선인민군	-11.4762
▁미치지	-11.4764
▁종은	-11.4764
▁체력	-11.4765
:2	-11.4766
▁꽃이	-11.4767
▁실린	-11.4768
가야	-11.4768
▁주주	-11.4769
▁확실	-11.4771
▁만료	-11.4771
▁코믹	-11.4772
▁스즈키	-11.4773
▁가열	-11.4774
▁평가했다	-11.4776
ort	-11.4776
▁체조	-11.4776
▁그것들	-11.4776
엔진	-11.4778
ella	-11.4778
魏	-11.4779
術	-11.4779
▁평안남도	-11.4779
▁쫓아	-11.4779
▁기병대	-11.478
▁올라간다	-11.4781
▁커뮤니케이션	-11.4781
▁실재	-11.4781
▁차량을	-11.4782
▁트리플	-11.4783
타를	-11.4784
둑	-11.4786
▁발견되지	-11.4786
▁관계자	-11.4786
▁시장을	-11.4787
▁군인들	-11.4788
▁나주	-11.4788
▁측에	-11.479
▁붙었다	-11.4791
▁곳의	-11.4791
▁정립	-11.4791
▁분수	-11.4792
광고	-11.4792
▁투르	-11.4792
▁가난	-11.4792
▁각도	-11.4793
▁했었다	-11.4794
▁기적	-11.4795
ness	-11.4796
우회	-11.4797
▁노론	-11.4798
▁전역에서	-11.4798
프의	-11.48
▁아시	-11.48
▁유체	-11.4801
▁연예	-11.4801
▁왕국을	-11.4801
▁방법에	-11.4802
▁워드	-11.4804
땃쥐	-11.4805
▁학회	-11.4805
팍	-11.4805
▁운행한다	-11.4805
▁보호하기	-11.4806
▁채소	-11.4809
▁예술가	-11.4809
▁상업적	-11.4809
▁유연	-11.4809
▁제국을	-11.4809
eb	-11.481
uk	-11.4811
▁ma	-11.4811
이게	-11.4812
▁그로부터	-11.4815
▁매개	-11.4817
▁제재	-11.4817
▁즐기	-11.4819
▁함경남도	-11.4822
▁가르쳤다	-11.4822
▁맞붙	-11.4823
▁올랐으며	-11.4823
▁플레이어는	-11.4823
▁하남	-11.4823
냉	-11.4823
-12	-11.4825
▁거부하고	-11.4826
▁시작하면서	-11.4826
▁나열	-11.4827
▁리만	-11.4828
년도에	-11.4828
▁청색	-11.483
타가	-11.483
▁미시시피	-11.4831
▁자신들이	-11.4831
▁동행	-11.4832
교육을	-11.4832
석과	-11.4835
▁새로이	-11.4836
하르트	-11.4836
▁생겨난	-11.4837
▁하구	-11.4839
log	-11.484
▁점령한	-11.484
▁리더십	-11.4841
자기	-11.4843
태양	-11.4845
호선과	-11.4847
텀	-11.4847
▁무대로	-11.4848
터를	-11.4849
▁알려져있다	-11.4849
HA	-11.4851
▁의미하며	-11.4851
드레	-11.4852
개소	-11.4853
▁상자	-11.4853
aw	-11.4853
▁스미	-11.4855
▁대군	-11.4856
▁초월	-11.4856
▁수록예정자	-11.4856
草	-11.4856
▁침체	-11.4858
sk	-11.4858
▁흉노	-11.4859
du	-11.4859
체스터	-11.4859
▁Br	-11.486
att	-11.4864
▁가자	-11.4864
순환	-11.4864
▁은퇴하였다	-11.4865
▁교정	-11.4865
효소	-11.4866
사무	-11.4866
▁방화	-11.4867
족을	-11.4868
▁경기장이다	-11.4868
▁자랐다	-11.4869
고등학교를	-11.4871
▁디스	-11.4871
최고	-11.4871
지역에서	-11.4874
▁하마	-11.4874
▁단행본	-11.4875
▁안된다	-11.4876
▁차례의	-11.4876
해지자	-11.4877
〉()	-11.488
▁1600	-11.4881
민이	-11.4882
라드	-11.4885
▁힌두교	-11.4885
▁의미는	-11.4886
사기	-11.4888
▁Cr	-11.4889
▁연고	-11.4889
▁20%	-11.489
果	-11.4891
▁가능성	-11.4891
▁요약	-11.4892
▁본국	-11.4893
스트로	-11.4894
▁결정하는	-11.4895
▁딸이다	-11.4896
▁로그	-11.4899
▁개념이다	-11.49
▁69	-11.4901
▁같은해	-11.4901
(2013	-11.4904
천면	-11.4904
암동	-11.4905
보리	-11.4906
목적	-11.4906
▁독일이	-11.4906
▁제국에	-11.4908
植	-11.4908
詞	-11.4908
▁케임브리지	-11.4908
▁표준화	-11.4909
▁피고인	-11.4909
▁활발히	-11.4911
▁독서	-11.4915
▁첨단	-11.4916
치와	-11.4916
호선이	-11.4917
黨	-11.4917
초의	-11.4918
렴	-11.4918
▁찬양	-11.4918
▁무너지	-11.4919
▁정해	-11.4919
선수권대회	-11.4919
gy	-11.4921
주의와	-11.4922
고래	-11.4922
▁활발	-11.4922
전과	-11.4923
▁연구원	-11.4923
▁붐	-11.4923
ρ	-11.4926
▁알렉산드리아	-11.4926
스테르	-11.4926
▁한족	-11.4926
대회에서	-11.4927
▁설교	-11.4928
▁펑크	-11.4931
▁대응하는	-11.4931
▁레슬링	-11.4935
▁오락	-11.4935
▁신원	-11.4936
▁똑같은	-11.4936
▁민감	-11.4937
▁1882	-11.4937
▁권총	-11.4937
▁어미	-11.4937
▁86	-11.4938
아래	-11.4939
언론	-11.4941
▁정권이	-11.4941
▁간토	-11.4942
▁아리스토텔레스	-11.4943
▁듀엣	-11.4943
▁소나무	-11.4944
▁OST	-11.4944
▁아프	-11.4945
▁주를	-11.4945
▁미세	-11.4947
▁이탈리아에서	-11.4949
ki	-11.4949
음반	-11.4949
Col	-11.495
KA	-11.4951
▁안으로	-11.4951
▁에미	-11.4951
惠	-11.4952
▁전하는	-11.4952
bit	-11.4952
▁물건을	-11.4952
▁인증을	-11.4954
▁런던의	-11.4954
위원회가	-11.4954
▁칼럼	-11.4954
▁함정	-11.4955
▁면허	-11.4956
span	-11.4956
CL	-11.4957
▁의결	-11.4958
▁알렉	-11.4958
이끼	-11.4958
라우	-11.496
湖	-11.496
ans	-11.4961
▁서문	-11.4963
트레	-11.4963
천동	-11.4966
▁73	-11.4967
▁레이스	-11.4968
영역	-11.4968
▁불꽃	-11.4968
▁다발	-11.4968
▁숨어	-11.4969
▁최대풍속	-11.4969
▁나란히	-11.4969
vel	-11.497
어머니	-11.4972
▁소송을	-11.4976
▁국어	-11.4976
면으로	-11.4977
uc	-11.4977
意	-11.4978
▁합스부르크	-11.4978
류와	-11.4979
▁새겨진	-11.4979
▁창출	-11.498
▁일부분	-11.498
▁공감	-11.4981
▁엽	-11.4984
▁휘하의	-11.4984
농업	-11.4984
▁추산	-11.4985
▁떨어졌다	-11.4986
次	-11.4987
▁어머니의	-11.4988
▁격자	-11.4988
과학기술	-11.4988
▁잘라	-11.499
▁전형	-11.4993
▁워크	-11.4994
ash	-11.4995
▁가네	-11.4996
파일	-11.4997
북면	-11.4997
▁춤을	-11.4998
▁학문을	-11.4998
니어	-11.4999
▁기사단	-11.5
nes	-11.5001
▁위헌	-11.5002
▁펑	-11.5002
▁제조업	-11.5002
▁시절의	-11.5002
▁남동부	-11.5004
▁북아프리카	-11.5005
▁모시	-11.5006
가족	-11.5008
▁새겨	-11.5008
▁실력을	-11.5008
벡	-11.5008
▁가져오	-11.5009
원군	-11.5009
▁시립	-11.5009
▁초나라	-11.501
!》	-11.5011
▁설립되었으며	-11.5012
▁후기에	-11.5013
▁무함마드	-11.5013
▁할리우드	-11.5013
密	-11.5013
▁김규식	-11.5013
▁격렬한	-11.5013
▁떨	-11.5013
▁마하	-11.5014
▁과장	-11.5015
▁두께	-11.5015
▁주연을	-11.5017
▁주역	-11.5017
민은	-11.5019
▁투표를	-11.502
▁도왔다	-11.5021
경의	-11.5021
바람	-11.5021
▁78	-11.5021
碑	-11.5021
센티미터	-11.5022
청년	-11.5022
▁일컬어	-11.5022
▁게르	-11.5022
▁아스널	-11.5022
▁몰수	-11.5022
ene	-11.5022
▁춘추	-11.5023
▁시리즈를	-11.5023
부리그	-11.5024
▁대신해	-11.5024
▁시정	-11.5027
▁보이스	-11.5028
라와	-11.5029
Di	-11.503
▁유대교	-11.5031
▁신정	-11.5031
비츠	-11.5032
▁점령하고	-11.5033
▁사용하면	-11.5033
▁시공	-11.5034
▁않자	-11.5034
▁짝	-11.5036
Com	-11.5036
축제	-11.5037
zi	-11.5038
▁포기하고	-11.5039
▁구형	-11.504
▁이관	-11.504
eu	-11.504
▁한민족	-11.5041
▁타원형	-11.5044
되어있다	-11.5044
▁누가	-11.5046
▁개항	-11.5047
▁남아있	-11.5048
力	-11.5048
▁다테	-11.5049
▁어드벤처	-11.505
보니	-11.505
▁파이어	-11.5051
▁아래쪽	-11.5051
▁불가능한	-11.5054
이름	-11.5055
▁대표적으로	-11.5055
ose	-11.5055
▁외국어	-11.5057
했음을	-11.5058
▁실시하고	-11.5058
친왕	-11.5059
▁꿀	-11.5059
▁대도시	-11.5059
▁국가는	-11.5059
교구	-11.506
▁조정에	-11.5061
▁손님	-11.5062
▁예이다	-11.5062
▁남게	-11.5063
▁그러다가	-11.5063
▁선수단은	-11.5063
▁천수	-11.5063
누마	-11.5065
▁콤팩트	-11.5065
▁작품들	-11.5066
▁발표하여	-11.5067
포켓몬스터	-11.5068
▁공격하여	-11.5068
▁각국의	-11.5068
▁Korea	-11.5069
▁생겼	-11.5069
포인트	-11.5071
판으로	-11.5072
삼국사기	-11.5073
▁중요성을	-11.5074
▁여운형	-11.5074
▁온갖	-11.5074
▁긴테쓰	-11.5075
▁파도	-11.5075
▁아라비아	-11.5075
▁평론가	-11.5076
Bu	-11.5076
▁넘어서	-11.5078
영상	-11.5079
wa	-11.5081
▁출연하여	-11.5081
角	-11.5083
전대	-11.5083
값을	-11.5083
▁우승팀	-11.5084
▁북아일랜드	-11.5084
▁일반적	-11.5085
▁1883	-11.5085
▁문예	-11.5087
▁소식	-11.5087
▁대성전	-11.5088
총회	-11.5089
▁천연기념물	-11.5092
건물	-11.5092
▁윤보선	-11.5092
▁고쿠	-11.5092
▁마라톤	-11.5093
▁지도자들	-11.5093
▁비율은	-11.5094
되므로	-11.5097
▁103	-11.5099
면과	-11.5099
▁깔	-11.51
괘	-11.5101
TP	-11.5102
▁둘러싸여	-11.5102
▁보리	-11.5103
▁경찰관	-11.5105
▁예고	-11.5105
▁원장	-11.5105
▁매수	-11.5105
▁표현한	-11.5107
▁가족은	-11.5108
▁영역에서	-11.5108
▁히사	-11.5109
▁지구에	-11.5109
▁와이번스	-11.5109
▁헬륨	-11.511
▁종교개혁	-11.5111
▁취업	-11.5112
▁고아	-11.5113
▁발라드	-11.5113
▁드러났다	-11.5114
ok	-11.5116
▁상금	-11.5118
부상	-11.5118
▁덮여	-11.5119
▁레닌	-11.512
▁아래는	-11.512
ero	-11.5121
▁언급했다	-11.5122
▁마녀	-11.5123
▁제작사	-11.5125
▁가옥	-11.5126
트르	-11.5127
嘉	-11.5127
트론	-11.5127
▁파이널	-11.5128
▁매매	-11.5128
▁컨트리	-11.5128
왔	-11.5129
▁근로자	-11.5129
▁기술은	-11.5132
평론가	-11.5132
row	-11.5132
▁진전	-11.5133
▁도착했다	-11.5133
▁느낌	-11.5134
▁주조	-11.5135
▁구성되었다	-11.5136
작으로	-11.5139
▁고향인	-11.5139
내의	-11.514
▁낮다	-11.5141
퐁	-11.5141
▁지선	-11.5142
▁수준으로	-11.5142
▁말부터	-11.5144
▁포로로	-11.5145
▁친일반민족행위	-11.5145
功臣	-11.5145
▁사업에	-11.5145
▁문화가	-11.5148
▁느낀	-11.5148
▁뛰었다	-11.5149
노동자	-11.515
rd	-11.515
▁되었던	-11.5153
▁익스프레스	-11.5154
▁선행	-11.5154
버전	-11.5155
▁가정에서	-11.5156
중대	-11.5156
▁상공	-11.5157
▁출신이며	-11.5157
▁87	-11.5158
▁붉은색	-11.5159
병이	-11.5161
ark	-11.5162
BL	-11.5165
▁보내고	-11.5167
▁연결되는	-11.5168
▁BC	-11.5169
픈	-11.517
▁불타	-11.5171
▁배운	-11.5172
▁예수의	-11.5173
▁분류군	-11.5173
▁장면이	-11.5176
▁Is	-11.5177
▁실패하고	-11.5178
親	-11.518
▁합친	-11.518
벅	-11.518
▁이조판서	-11.518
쳤으며	-11.5182
▁베리	-11.5185
▁인자	-11.5185
랐다	-11.5186
▁게임으로	-11.5186
▁입주	-11.5186
▁해체되었다	-11.5186
춰	-11.5189
▁아이디어	-11.5189
▁발언을	-11.5189
千	-11.5189
非	-11.5189
▁최연소	-11.5189
▁이북	-11.5191
ild	-11.5191
▁노트	-11.5192
NG	-11.5194
퉁	-11.5195
▁선수는	-11.5196
우와	-11.5198
▁음악이	-11.5198
▁목을	-11.5198
咸	-11.5198
네이션	-11.5198
▁특권	-11.52
▁플라이	-11.52
▁학생들	-11.5201
▁직통	-11.5201
▁캔	-11.5201
▁벽돌	-11.5202
▁공격해	-11.5202
▁무조건	-11.5203
▁맞은	-11.5204
▁동사	-11.5206
▁도시들	-11.5207
▁조수	-11.5208
된다고	-11.5209
위권	-11.5209
▁수행할	-11.521
lect	-11.521
▁겁	-11.5211
▁원인을	-11.5211
▁섞어	-11.5211
cle	-11.5212
▁온다	-11.5212
TE	-11.5214
▁원격	-11.5215
▁다이아몬드	-11.5216
▁스톡홀름	-11.5216
▁일으킬	-11.5216
씬	-11.5216
▁말까지	-11.5216
▁국제적	-11.5218
▁남쪽은	-11.522
▁맞고	-11.522
▁생긴다	-11.5221
▁대부	-11.5223
▁감안	-11.5224
향교	-11.5227
▁기차	-11.5227
줬다	-11.5228
▁마을에	-11.5229
▁관광지	-11.5229
▁라이프	-11.523
▁서쪽은	-11.5231
▁헌신	-11.5233
▁잡는	-11.5235
▁공격으로	-11.5235
녀를	-11.5236
▁평을	-11.5236
클린	-11.5238
실이	-11.5239
▁개최국	-11.524
니우스	-11.5241
여명	-11.5241
▁움	-11.5243
기타	-11.5244
▁집결	-11.5244
▁쪽에	-11.5246
ood	-11.5247
▁끝날	-11.5247
주의에	-11.5247
▁건설된	-11.5247
▁흔적이	-11.5247
우며	-11.5248
▁자세히	-11.5248
▁로비	-11.5248
El	-11.5249
▁발령	-11.5249
▁더비	-11.525
▁독도	-11.525
▁저지대	-11.525
▁정상에	-11.5251
▁운동가	-11.5251
▁보복	-11.5252
領	-11.5252
▁진행되는	-11.5252
~10	-11.5253
▁컴퍼니	-11.5253
▁버전으로	-11.5253
▁릴	-11.5256
ham	-11.5256
▁중위	-11.5257
히트	-11.5258
MO	-11.5259
機	-11.5261
▁옥스퍼드	-11.5261
▁케플러	-11.5262
▁정성	-11.5262
▁개인적인	-11.5262
▁형성되어	-11.5263
티에	-11.5263
▁방향에	-11.5265
▁예선에서	-11.5265
▁유용	-11.5266
▁SE	-11.5267
아일랜드	-11.5268
▁싸웠다	-11.5268
▁꼽힌다	-11.527
ya	-11.527
▁체포되었다	-11.527
미노	-11.5271
To	-11.5273
비안	-11.5274
하자는	-11.5274
진과	-11.5275
리움	-11.5276
▁용암	-11.5277
강을	-11.5277
▁그렸다	-11.5278
ald	-11.5278
火	-11.5279
沙	-11.5279
TR	-11.5279
ami	-11.5282
▁갈아	-11.5283
믹	-11.5285
▁개인전	-11.5285
▁제나라	-11.5286
▁천거	-11.5287
tin	-11.5289
▁사고를	-11.5289
라바	-11.5291
air	-11.5291
▁리스	-11.5291
▁후보를	-11.5291
▁무슨	-11.5292
▁형성하고	-11.5292
초를	-11.5292
것으로	-11.5292
▁파문	-11.5293
▁줄여	-11.5295
▁본작	-11.5295
▁효율	-11.5296
▁부드러운	-11.5297
▁알렉산드르	-11.5297
▁클라이언트	-11.5297
▁형식은	-11.5298
▁비교해	-11.5299
▁호위	-11.53
▁보편	-11.5301
마타	-11.5301
▁900	-11.5302
▁열도	-11.5303
▁김민	-11.5304
역에	-11.5305
▁과실	-11.5306
▁쿤	-11.5308
테이션	-11.5309
기둥	-11.531
▁하느님의	-11.5311
▁사카	-11.5311
▁취임했다	-11.5311
▁역사와	-11.5313
▁81	-11.5314
▁해를	-11.5315
궈	-11.5315
▁차츰	-11.5315
▁결론을	-11.5315
Me	-11.5315
▁학생들의	-11.5316
▁완성된	-11.5316
▁빨	-11.5316
▁남북으로	-11.5316
chi	-11.5318
레이크	-11.5318
▁섬과	-11.5319
▁학과	-11.5319
tis	-11.532
Se	-11.5321
▁속편	-11.5322
▁기관총	-11.5322
사자	-11.5323
▁무실점	-11.5323
▁피해가	-11.5323
▁71	-11.5323
▁크리스토퍼	-11.5324
▁기타를	-11.5324
케르	-11.5325
관에서	-11.5325
▁제시한	-11.5326
▁극한	-11.5326
연수	-11.5329
▁에버	-11.5331
▁분량	-11.5332
▁데뷔하였으며	-11.5333
dd	-11.5333
▁로빈	-11.5334
▁헤어	-11.5335
▁기르	-11.5336
데일	-11.5336
▁모인	-11.5336
형과	-11.5337
▁말고	-11.5339
▁j	-11.5339
▁봄에	-11.5339
▁표현할	-11.534
伊	-11.5342
▁예컨대	-11.5342
▁본문	-11.5344
▁감자	-11.5344
▁막대	-11.5345
▁소문이	-11.5346
있게	-11.5347
▁디오	-11.5347
▁인접해	-11.5347
▁닛폰	-11.5351
▁오크	-11.5351
▁키예프	-11.5353
▁1893	-11.5353
▁알리는	-11.5353
▁모노	-11.5354
韓國	-11.5356
▁임명되었고	-11.5357
夫	-11.5358
▁물품	-11.5359
_16	-11.5359
▁연루	-11.536
ん	-11.536
▁발렌시아	-11.536
▁CEO	-11.536
▁아케이드	-11.536
ren	-11.536
▁광양	-11.536
ith	-11.5362
▁싸이	-11.5362
▁직원들	-11.5363
▁스탠	-11.5364
▁자란다	-11.5365
▁마을에서	-11.5366
▁요새를	-11.5366
▁길에	-11.5367
▁대역	-11.5368
▁가가	-11.5368
인구	-11.5368
디는	-11.5371
▁펼쳤	-11.5372
++	-11.5374
▁계기	-11.5374
▁가산	-11.5376
▁승강장을	-11.5376
▁외에는	-11.5377
▁74	-11.5378
▁마침	-11.5379
▁내용이다	-11.5379
▁정문	-11.5379
▁1848	-11.538
▁제수	-11.5381
▁크기를	-11.5381
▁워너	-11.5383
ail	-11.5383
바위	-11.5383
만명의	-11.5384
▁마디	-11.5384
▁지옥	-11.5385
▁그녀에게	-11.5386
▁최하위	-11.5388
▁표현이	-11.5388
▁Fr	-11.5389
▁후반기	-11.539
▁박영	-11.5391
▁단어를	-11.5391
▁잊	-11.5394
터미널	-11.5394
티는	-11.5395
끈	-11.5396
▁이용된다	-11.5396
핏	-11.5396
▁닫힌	-11.5396
미술관	-11.5397
▁삼층석탑	-11.5397
▁비판하였다	-11.54
▁원내	-11.5401
ino	-11.5401
▁묘사한	-11.5402
▁물질이	-11.5403
그러	-11.5403
▁프레스	-11.5405
初	-11.5406
▁즐길	-11.5406
▁민정	-11.5407
▁중수	-11.5408
질환	-11.5408
일반	-11.5409
어도	-11.5409
▁나타났	-11.5411
▁낮추	-11.5411
▁달라고	-11.5413
▁연기했다	-11.5414
▁전했다	-11.5414
柱	-11.5415
▁태백	-11.5416
▁폭격기	-11.5417
되지는	-11.5417
▁있거나	-11.5418
EP	-11.5419
▁Ra	-11.542
▁빈곤	-11.542
▁예명	-11.5421
체와	-11.5421
▁성장을	-11.5422
▁Day	-11.5422
▁피겨	-11.5425
토쿠	-11.5426
▁느끼	-11.5427
력의	-11.5427
▁데서	-11.5427
주의자들	-11.5428
▁성행	-11.5429
리드	-11.543
▁호족	-11.5431
▁옴	-11.5431
킬로미터	-11.5433
▁디트로이트	-11.5433
▁연말	-11.5434
▁신의	-11.5435
▁공표	-11.5435
▁3.1	-11.5436
▁입수	-11.5437
노트	-11.5437
▁타르	-11.5437
▁중대한	-11.5438
▁시도를	-11.5439
▁공민왕	-11.5439
디자인	-11.5439
▁사슬	-11.5439
▁다마	-11.544
▁설명하고	-11.5442
▁개원	-11.5442
▁중심에	-11.5442
Pro	-11.5444
▁허위	-11.5445
액을	-11.5445
▁mo	-11.5447
난다	-11.5447
▁겐지	-11.5449
▁목록에	-11.5449
▁도시에서	-11.545
τ	-11.5451
정사	-11.5451
▁설명할	-11.5452
DO	-11.5452
▁보강	-11.5452
▁기록되었다	-11.5452
▁어렸을	-11.5452
였	-11.5454
▁타협	-11.5454
ker	-11.5454
▁일어나고	-11.5455
▁밖에서	-11.5456
즈키	-11.5457
▁은거	-11.5458
▁검열	-11.5459
香	-11.546
▁자비	-11.5461
SR	-11.5465
(9	-11.5465
탄을	-11.5466
자형	-11.5466
▁영국인	-11.5468
▁안의	-11.5469
▁친분	-11.547
법상	-11.547
왜	-11.547
▁모습은	-11.5471
풍의	-11.5474
▁장소로	-11.5474
▁포괄	-11.5475
▁규정에	-11.5475
▁재편	-11.5477
▁총리가	-11.5477
▁야마가타	-11.5479
▁게릴라	-11.5479
호텔	-11.548
▁비석	-11.5482
▁세워져	-11.5482
전력	-11.5482
되도록	-11.5483
▁보증	-11.5484
▁년간	-11.5484
▁기여를	-11.5484
▁역사의	-11.5485
토를	-11.5486
공은	-11.5486
Ac	-11.5486
丁	-11.5488
엔터테인먼트	-11.5488
폭력	-11.5489
▁점에	-11.5492
▁무술	-11.5494
▁위주로	-11.5495
▁실시한	-11.5495
▁소령	-11.5496
▁굵은	-11.5498
▁점유	-11.5498
▁NT	-11.5498
▁출석	-11.5499
▁회사인	-11.5499
화물	-11.5499
▁의원들	-11.55
▁뻗	-11.55
▁제작을	-11.5501
봐	-11.5502
▁타점	-11.5505
▁구도	-11.5506
▁기여하였다	-11.5506
▁부딪	-11.5506
▁통합하여	-11.5507
▁패밀리	-11.5507
▁드디어	-11.5507
▁나오고	-11.5509
▁로렌	-11.551
있어	-11.5511
지인	-11.5511
뿔	-11.5512
IF	-11.5514
▁연이어	-11.5514
▁투항	-11.5515
▁옥수수	-11.5515
▁학교의	-11.5519
지휘	-11.552
▁면제	-11.5522
해야만	-11.5523
ski	-11.5523
▁드리	-11.5524
▁단기	-11.5528
▁들어올	-11.5529
교의	-11.5529
▁리치	-11.553
▁사설	-11.5531
▁교량	-11.5532
▁유타	-11.5533
～	-11.5534
▁겉보기	-11.5534
▁천문학자	-11.5536
았지만	-11.5538
▁등장하였다	-11.5538
▁헌정	-11.5539
▁내면	-11.554
설계	-11.5541
▁쏟아	-11.5542
ator	-11.5542
코의	-11.5542
회원	-11.5542
▁창극	-11.5543
귄	-11.5543
我	-11.5543
。	-11.5543
▁관제	-11.5543
▁군산	-11.5545
▁발급	-11.5546
▁지칭	-11.5546
▁직경	-11.5546
▁당수	-11.5547
CE	-11.5547
▁기본으로	-11.5548
▁정보가	-11.5548
▁치열한	-11.5548
쪽으로	-11.5549
▁84	-11.5549
CH	-11.555
Un	-11.555
▁지상역	-11.5551
▁받으면서	-11.5551
MBC	-11.5552
▁효과적으로	-11.5552
▁패러디	-11.5552
▁끌고	-11.5553
▁반주	-11.5554
▁정도를	-11.5556
▁사랑하는	-11.5557
▁끄	-11.5557
▁한인	-11.5557
▁대전이	-11.5557
희가	-11.5559
▁거부했다	-11.556
▁기하학	-11.5561
▁유격수	-11.5562
▁불신	-11.5562
▁견인	-11.5563
▁생겨났다	-11.5564
문화유산	-11.5564
Robert	-11.5566
▁장흥	-11.5567
리야	-11.5568
▁조선시대에	-11.5569
▁System	-11.557
▁활동하다가	-11.5571
▁지닌다	-11.5574
▁커서	-11.5574
▁선동	-11.5575
▁이전부터	-11.5575
▁철폐	-11.5576
▁일이었다	-11.5577
▁장의	-11.5578
▁CBS	-11.5578
▁메달을	-11.5579
작곡	-11.5579
▁관구	-11.5579
남면	-11.558
▁끌려	-11.558
▁사용하기도	-11.5582
▁이내에	-11.5583
▁지키고	-11.5584
갔으나	-11.5584
▁발리	-11.5585
▁선이	-11.5586
▁없던	-11.5587
혐	-11.5587
▁계약이	-11.5588
▁돌을	-11.5589
▁작성한	-11.5591
년대의	-11.5591
fi	-11.5592
▁게르만	-11.5593
SL	-11.5594
▁경주시	-11.5595
▁후진	-11.5595
▁불행	-11.5598
▁본인이	-11.5599
▁왼손	-11.56
▁구내	-11.56
▁요정	-11.5601
▁작가로	-11.5601
▁국영	-11.5601
▁니콜라이	-11.5602
▁원인으로	-11.5602
▁가리지	-11.5603
▁용이	-11.5603
▁내용에	-11.5603
▁1888	-11.5604
▁복권	-11.5604
▁관세	-11.5604
보가	-11.5605
表	-11.5608
▁하행	-11.5608
▁궁궐	-11.5608
▁오나라	-11.5612
▁SP	-11.5614
▁늦게	-11.5615
워드	-11.5616
▁발표하고	-11.5616
▁요르단	-11.5617
▁트로피	-11.5617
▁알려주	-11.5617
cr	-11.5618
렸지만	-11.5618
대리	-11.5618
시타	-11.5619
▁아부	-11.5619
▁대통령과	-11.562
▁북쪽은	-11.5621
ax	-11.5621
대에서	-11.5621
▁목적이	-11.5621
▁정점	-11.5623
▁우승했다	-11.5624
▁매치	-11.5625
▁지키기	-11.5625
▁왕국은	-11.5625
▁작다	-11.5625
봄	-11.5628
bl	-11.5629
▁그룹으로	-11.5632
▁저격	-11.5632
영의	-11.5635
戱	-11.5636
▁냄새	-11.5636
▁프로듀싱	-11.5636
▁마라	-11.5636
▁무죄	-11.5636
▁로키	-11.5637
▁LA	-11.5638
▁이용해서	-11.5638
▁철학적	-11.5638
▁겪는	-11.5639
▁고성	-11.5639
▁AP	-11.5639
▁데이브	-11.5641
▁밭	-11.5642
얄	-11.5642
▁누르	-11.5643
red	-11.5644
▁감금	-11.5645
소득	-11.5645
岩	-11.5645
▁비영리	-11.5645
▁대학교를	-11.5646
죄로	-11.5646
▁정치를	-11.5646
정동	-11.5647
▁여수	-11.5648
▁열강	-11.5648
▁자치체	-11.5649
▁스위치	-11.565
▁지도를	-11.5652
▁발전하였다	-11.5652
▁사용되며	-11.5653
ο	-11.5654
居	-11.5654
▁실정	-11.5656
▁원료	-11.5657
▁누구나	-11.5658
▁제프	-11.5659
▁파병	-11.5659
▁일반인	-11.566
▁치고	-11.566
▁살게	-11.566
▁증권	-11.5661
주지	-11.5661
▁초원	-11.5661
▁거문고	-11.5664
▁미나	-11.5665
▁버클리	-11.5665
▁시리즈는	-11.5666
▁종점	-11.5668
▁작가의	-11.5669
없	-11.567
개국에서	-11.5671
▁돕기	-11.5671
▁작용을	-11.5672
▁남산	-11.5673
▁학생들은	-11.5673
티니	-11.5675
▁운행하고	-11.5676
▁성리학	-11.5677
nd	-11.5677
▁조부	-11.568
▁항쟁	-11.5682
▁퍼포먼스	-11.5682
▁아인슈타인	-11.5682
▁시라	-11.5682
▁단원	-11.5683
▁용서	-11.5684
▁동쪽은	-11.5684
▁왜성	-11.5685
Cl	-11.5685
▁레일	-11.5686
BM	-11.5687
▁시달리	-11.5687
수이다	-11.5688
문화재	-11.5689
▁지구를	-11.5689
▁부정적	-11.569
▁반도의	-11.569
측의	-11.569
▁들어왔다	-11.5691
▁바꾸는	-11.5692
▁룰	-11.5694
▁붓	-11.5694
▁벤치	-11.5695
▁전날	-11.5695
▁법조인	-11.5695
▁부대가	-11.5695
청이	-11.5695
제조	-11.5695
▁역사에서	-11.5695
▁심야	-11.5696
동원	-11.5696
▁연쇄	-11.5697
▁돌로	-11.5698
▁분리된	-11.5698
연극	-11.57
▁거기	-11.57
俊	-11.5701
브리아	-11.5702
▁농사	-11.5703
▁거치	-11.5704
사장	-11.5704
▁Vi	-11.5704
▁유지하기	-11.5706
▁안경	-11.5708
▁발병	-11.571
▁연산군	-11.571
▁김옥균	-11.571
類	-11.571
▁쉽다	-11.5711
▁선택할	-11.5711
▁가나가와현	-11.5712
▁사람들과	-11.5714
▁카드를	-11.5715
학사	-11.5716
▁믿는	-11.5718
▁수익을	-11.572
▁노르	-11.572
資	-11.572
▁미야자키	-11.572
▁중등	-11.5721
▁입양	-11.5722
Br	-11.5723
▁역사학자	-11.5723
컴퓨터	-11.5723
▁음향	-11.5723
아트	-11.5724
▁갈리아	-11.5725
▁제기되었다	-11.5726
▁조지프	-11.5727
▁진행하는	-11.5727
지나	-11.5727
▁상담	-11.5727
▁소리가	-11.5728
▁사랑에	-11.5729
▁아가	-11.573
▁친왕	-11.573
▁하에서	-11.573
▁재질	-11.5731
▁거짓말	-11.5731
▁육군의	-11.5734
▁만의	-11.5737
뮤직	-11.5738
▁말미암아	-11.5739
▁정의된다	-11.574
▁중앙아시아	-11.5741
▁앞쪽	-11.5741
▁하인	-11.5741
▁Art	-11.5742
▁선도	-11.5742
▁캐리	-11.5743
면은	-11.5743
▁적용되었다	-11.5743
▁인정하는	-11.5743
퍼센트	-11.5743
▁추구하는	-11.5744
▁나타낸	-11.5744
토는	-11.5745
과정에서	-11.5745
로그	-11.5747
▁약혼	-11.5747
FS	-11.5748
▁뉴캐슬	-11.5748
紀	-11.5748
▁시청자	-11.5749
▁선구자	-11.5752
ensis	-11.5752
색이	-11.5752
▁청사	-11.5753
▁동유럽	-11.5754
▁끼쳤다	-11.5754
▁분위기를	-11.5755
▁난카이	-11.5755
▁et	-11.5755
면서도	-11.5756
▁델타	-11.5756
역의	-11.5756
▁동부에	-11.5757
▁쾰른	-11.5758
▁미루어	-11.5759
▁서임	-11.5759
▁파나마	-11.576
▁AM	-11.5761
▁김지	-11.5763
모니	-11.5766
▁친구인	-11.5766
▁염소	-11.5767
랏	-11.5767
▁시즌부터	-11.5767
▁진도	-11.5769
▁단면	-11.5769
▁세력은	-11.577
▁핑크	-11.5772
청사	-11.5772
▁총사령관	-11.5772
▁마카오	-11.5773
▁이르렀	-11.5773
▁포스터	-11.5774
르크	-11.5774
▁맹세	-11.5775
▁불안정	-11.5776
▁유벤투스	-11.5776
▁스폰서	-11.5776
▁엔진이	-11.5776
▁듣지	-11.5777
▁前	-11.5778
▁연못	-11.5779
▁신도비	-11.578
▁주장에	-11.578
▁李	-11.5781
hu	-11.5782
▁기념하여	-11.5782
▁자칭	-11.5782
지부	-11.5783
스팅	-11.5783
ó	-11.5783
▁이즈	-11.5784
▁비롯된	-11.5785
▁105	-11.5786
▁박헌영	-11.5786
▁나의	-11.5786
▁정경	-11.5788
▁게임이	-11.5789
▁노래로	-11.5789
▁시코쿠	-11.5789
▁생물학적	-11.579
꿈	-11.579
인권	-11.579
▁비용이	-11.5791
▁쓰여진	-11.5791
▁출가	-11.5792
▁관해서는	-11.5795
▁SD	-11.5795
▁서부에	-11.5795
▁후반부터	-11.5796
▁교수를	-11.5797
▁터보	-11.58
oy	-11.5801
▁스노	-11.5801
▁국가와	-11.5803
▁경상	-11.5803
▁선임되었다	-11.5804
▁수행한다	-11.5804
▁슬픔	-11.5805
▁장원	-11.5805
▁세기	-11.5807
▁따왔다	-11.5807
▁비중이	-11.5809
▁평화를	-11.581
▁변화는	-11.5812
크와	-11.5813
▁하리	-11.5813
뮤	-11.5813
▁편에	-11.5813
し	-11.5814
泉	-11.5814
盧	-11.5814
▁허가를	-11.5815
▁아산	-11.5816
▁넘게	-11.5816
▁말하자면	-11.5816
▁모색	-11.5816
▁앨범으로	-11.5817
▁소울	-11.5817
ez	-11.5817
Sh	-11.5818
▁화장	-11.5819
New	-11.582
▁보낸다	-11.5821
타스	-11.5823
▁제한된	-11.5825
▁영지를	-11.5827
▁싸움을	-11.5827
▁비평가들	-11.5828
▁대회가	-11.5829
후의	-11.583
▁발생하여	-11.5831
▁못하여	-11.5831
▁종파	-11.5831
실험	-11.5833
▁때인	-11.5833
▁앨리스	-11.5835
▁지질	-11.5837
▁아키타	-11.5838
식에	-11.5838
▁명분	-11.5839
▁형성되었다	-11.5839
증권	-11.584
▁빔	-11.5841
▁전래	-11.5841
▁운영되고	-11.5842
か	-11.5843
▁베토벤	-11.5843
▁칙	-11.5843
▁무소속	-11.5844
▁좁	-11.5845
▁복용	-11.5848
▁너무나	-11.5848
▁시스템에	-11.5849
▁실전	-11.5849
▁더해	-11.5849
▁소셜	-11.5849
▁중퇴	-11.585
▁80%	-11.5852
▁좌표	-11.5855
톤의	-11.5858
▁고려시대의	-11.5858
▁And	-11.5859
hr	-11.586
▁의자	-11.586
▁혼다	-11.5861
륭	-11.5862
▁해밀턴	-11.5862
▁퇴적	-11.5862
즈와	-11.5863
▁복귀했다	-11.5863
개국이	-11.5864
▁전국적으로	-11.5864
▁경시	-11.5864
길을	-11.5865
▁곡물	-11.5865
▁82	-11.5866
▁현행	-11.5867
▁War	-11.5867
그림	-11.5868
▁박정	-11.587
퀘	-11.587
▁조립	-11.5871
▁극심한	-11.5871
cl	-11.5873
곰	-11.5876
▁세레	-11.5877
gg	-11.5877
추진	-11.5877
▁미래의	-11.5877
히사	-11.5878
▁MTV	-11.5879
슬라	-11.588
▁반군	-11.5881
▁예선전	-11.5881
▁마다가스카르	-11.5881
▁시대가	-11.5882
▁경질	-11.5882
IL	-11.5883
▁당대의	-11.5884
lor	-11.5884
▁도입한	-11.5886
▁길다	-11.5886
▁카시	-11.589
▁등재	-11.589
프스	-11.589
▁중심지로	-11.589
▁러셀	-11.5892
▁물체의	-11.5892
▁중국에	-11.5892
▁펜싱	-11.5892
레미	-11.5895
▁플랜	-11.5896
par	-11.5897
ology	-11.5898
▁97	-11.5898
PD	-11.5898
▁주인공으로	-11.5899
▁배우자	-11.5899
교육청	-11.59
직접적인	-11.59
▁헤르체고비나	-11.59
▁제안했다	-11.59
사관학교	-11.5903
옷	-11.5903
▁뉴욕주	-11.5904
▁용어이다	-11.5904
▁판소리	-11.5904
음으로	-11.5905
▁국보	-11.5905
▁요청했다	-11.5906
▁1868	-11.5906
▁1864	-11.5906
▁가사를	-11.5906
ari	-11.5907
▁이용자	-11.5908
겼고	-11.5909
▁럭비	-11.591
▁대학생	-11.591
교류	-11.591
▁부르고뉴	-11.591
▁총무	-11.5912
▁점령했다	-11.5912
민주주의	-11.5913
▁캠	-11.5914
파이어	-11.5915
▁벌여	-11.5916
▁전해지는	-11.5916
▁자크	-11.5917
▁돋	-11.5917
致	-11.5919
쿼	-11.5921
▁이탈리아어	-11.5921
Ho	-11.5922
심사	-11.5922
▁AT	-11.5923
희의	-11.5924
▁선수였다	-11.5925
▁절정	-11.5927
있지	-11.5928
▁종류로	-11.593
mus	-11.593
튜	-11.593
▁이론에서	-11.5932
_17	-11.5934
▁가문은	-11.5934
ress	-11.5936
▁극장에서	-11.5936
▁많지	-11.5938
象	-11.5938
펫	-11.5938
▁아시카가	-11.5938
▁돌보	-11.5938
▁어둠	-11.594
동면	-11.5941
하늘	-11.5942
▁낙선	-11.5943
국과	-11.5943
▁흐른다	-11.5944
대통령	-11.5945
▁김포	-11.5945
▁우파	-11.5947
국에서	-11.5947
墓	-11.5948
▁여우주연상	-11.5948
캣	-11.5948
▁내무	-11.5948
▁싸우는	-11.5949
▁증손	-11.5949
업무	-11.5949
▁흐름을	-11.5949
▁보도했다	-11.5953
▁만성	-11.5956
▁손해배상	-11.5958
▁응우옌	-11.5958
▁유료	-11.5958
▁에디션	-11.5958
▁30%	-11.5959
NC	-11.5959
▁최적화	-11.596
속에서	-11.596
▁나라는	-11.596
품으로	-11.5961
년경에	-11.5962
행위를	-11.5964
▁co	-11.5965
▁솟아	-11.5966
蘇	-11.5967
▁윙	-11.5968
▁랭	-11.5969
ser	-11.597
▁도시에	-11.5972
▁태생	-11.5974
▁발라	-11.5976
른다	-11.5976
▁Or	-11.5977
▁가브리엘	-11.5977
▁계정	-11.5977
▁ex	-11.5977
▁토지를	-11.5979
바퀴	-11.5981
▁증거가	-11.5981
▁리오	-11.5981
▁종목에서	-11.5982
▁04	-11.5983
▁입국	-11.5984
왕조	-11.5985
코르	-11.5985
▁퍼지	-11.5986
昭	-11.5986
▁서진	-11.5987
▁않아서	-11.5987
▁출연해	-11.5988
▁버마	-11.5988
실에	-11.5994
▁상태의	-11.5994
덱	-11.5994
▁79	-11.5996
mar	-11.5996
▁재판을	-11.5996
▁마닐라	-11.5996
▁전복	-11.5996
▁스트라이커	-11.5996
파스	-11.5996
cent	-11.5996
▁박종	-11.5999
▁체인	-11.6
▁1876	-11.6
공작	-11.6001
int	-11.6001
▁포르투	-11.6003
▁순위를	-11.6004
▁SO	-11.6005
▁1886	-11.6005
내가	-11.6008
▁실무	-11.6009
▁가맹	-11.6011
▁부당	-11.6011
form	-11.6011
▁강하다	-11.6013
▁가족과	-11.6013
▁정치에	-11.6014
▁변경했다	-11.6015
▁상트페테르부르크	-11.6015
▁알래스카	-11.6015
뮈	-11.6015
▁산둥	-11.6016
NT	-11.6017
▁지원하고	-11.6017
▁한편으로는	-11.6018
▁중점을	-11.6018
▁부각	-11.602
mor	-11.602
▁조성된	-11.602
▁일어나지	-11.602
▁우물	-11.6021
▁버전을	-11.6021
▁지원하기	-11.6022
▁가계	-11.6023
▁소련은	-11.6023
▁자치주	-11.6023
▁휠	-11.6024
目	-11.6025
▁비주얼	-11.6025
▁튀니지	-11.6025
▁All	-11.6025
▁읽고	-11.6025
옹주	-11.6026
▁불린	-11.6026
▁복선	-11.6027
▁조별리그	-11.6027
토록	-11.6027
토키	-11.6027
▁초점	-11.6027
▁단독으로	-11.6027
▁성전	-11.6028
사회주의	-11.6028
노래	-11.6028
배를	-11.6028
실은	-11.6029
▁개인이	-11.6031
곡은	-11.6031
▁검출	-11.6032
▁순교	-11.6032
▁돌출	-11.6032
▁오늘날에는	-11.6033
ek	-11.6033
▁못하다	-11.6034
▁직후에	-11.6034
彦	-11.6035
品	-11.6035
▁흐르고	-11.6035
▁대회에서는	-11.6036
▁제목은	-11.6036
▁문제와	-11.6037
▁명에	-11.6037
Dr	-11.6037
▁92	-11.6038
▁도카이도	-11.6039
▁복식	-11.6041
▁전당에	-11.6042
▁실존	-11.6043
▁지나는	-11.6044
▁350	-11.6044
▁죽게	-11.6045
off	-11.6045
▁평민	-11.6045
▁사전에	-11.6047
투르	-11.6048
▁다녀	-11.6048
▁기성	-11.6049
▁다양하게	-11.605
▁팔아	-11.605
사진	-11.6051
▁자작	-11.6052
▁득표율	-11.6053
▁시마	-11.6053
Ca	-11.6054
▁밝혀진	-11.6054
獻	-11.6054
▁출판되었다	-11.6055
▁일산	-11.6055
uch	-11.6056
▁별이	-11.6057
▁선진	-11.6057
▁주관하는	-11.6058
▁공존	-11.6058
▁시합	-11.6058
번은	-11.6059
▁만들어져	-11.6061
텍스	-11.6062
색은	-11.6062
▁보다는	-11.6062
감에	-11.6064
현동	-11.6064
다발	-11.6064
▁동요	-11.6065
▁마르틴	-11.6067
▁건물이다	-11.6067
▁벽화	-11.6071
▁부작용	-11.6071
▁학생들을	-11.6072
▁정선	-11.6072
졌을	-11.6073
齊	-11.6074
▁달걀	-11.6074
▁쓰기도	-11.6074
▁자제	-11.6074
골로	-11.6074
▁언론에	-11.6076
호쿠	-11.6078
▁잠실	-11.6078
덩이	-11.608
▁점포	-11.6081
ult	-11.6082
결합	-11.6083
▁주목받	-11.6083
것은	-11.6084
니에	-11.6084
▁이용객	-11.6088
▁얇은	-11.6093
▁제퍼슨	-11.6093
게이트	-11.6093
▁지분	-11.6095
자이자	-11.6096
▁명명되었다	-11.6097
▁로저	-11.6097
▁득	-11.6097
▁헬기	-11.6098
▁이황	-11.61
건의	-11.6101
삐	-11.6103
▁생계	-11.6104
▁모은	-11.6104
▁비하여	-11.6104
▁사회민주당	-11.6106
▁생각이	-11.6109
▁하류	-11.611
▁올바른	-11.6113
렙	-11.6113
▁걸작	-11.6113
▁마르크스주의	-11.6113
회와	-11.6113
▁계몽	-11.6113
▁le	-11.6114
▁교육부	-11.6117
over	-11.6117
▁원전	-11.6119
▁국왕의	-11.6119
▁상황은	-11.6119
▁김형	-11.612
사태	-11.612
나가는	-11.612
된다는	-11.6121
▁정치인으로	-11.6122
諸	-11.6122
어요	-11.6122
▁심각	-11.6126
▁진흥	-11.6126
▁성별	-11.6127
▁겪고	-11.6127
▁케이스	-11.6127
셨다	-11.6128
▁밀러	-11.6128
▁자음	-11.6129
▁양이	-11.6129
쿤	-11.613
▁반란군	-11.613
▁의무를	-11.6131
▁활발하게	-11.6131
노조	-11.6132
▁티켓	-11.6134
▁쿠퍼	-11.6135
▁리그를	-11.6135
ings	-11.6137
ode	-11.614
な	-11.6142
▁어긋나	-11.6142
▁스카우트	-11.6142
▁심화	-11.6143
▁100%	-11.6144
▁강간	-11.6146
▁낫	-11.6147
▁충북	-11.6148
기반	-11.6148
▁분당	-11.6151
▁파손	-11.6152
No	-11.6152
▁세속	-11.6152
▁헌법에	-11.6153
▁생산된	-11.6154
관왕	-11.6155
▁프랑스에	-11.6157
▁화학적	-11.616
재료	-11.6161
▁이광	-11.6161
▁감수	-11.6162
▁돌고	-11.6163
▁사업가	-11.6163
▁도움	-11.6166
지어	-11.6166
▁다툼	-11.6166
▁받아야	-11.6167
▁타이거스	-11.6168
▁되던	-11.6168
왔던	-11.617
▁윤선도	-11.6172
▁과의	-11.6172
▁부사	-11.6173
▁무명	-11.6173
▁종군	-11.6173
▁피아	-11.6174
▁이름과	-11.6175
PO	-11.6175
▁악단	-11.6175
▁만들어낸	-11.6175
▁1887	-11.6176
▁수축	-11.6176
▁유니폼	-11.6178
▁접수	-11.6179
▁군이다	-11.6182
▁시호	-11.6183
▁제도에	-11.6184
▁감상	-11.6184
▁잃었	-11.6184
▁작업이	-11.6186
▁동일하게	-11.6187
뉘	-11.6188
▁동성	-11.6189
▁귀신	-11.6189
pt	-11.619
▁불확실	-11.6191
▁치아	-11.6192
▁선생님	-11.6192
▁10,000	-11.6195
▁이해할	-11.6195
▁유정	-11.6195
▁가르치	-11.6196
▁문과	-11.6197
니언	-11.6198
▁애틀랜타	-11.6201
▁요제프	-11.6201
리치	-11.6201
▁조선후기	-11.6201
▁웹툰	-11.6202
디오	-11.6202
협회는	-11.6202
▁붙여졌다	-11.6204
▁그림자	-11.6204
ace	-11.6205
웃	-11.6206
블러	-11.6206
」(	-11.6206
▁책이다	-11.6207
▁판례	-11.6207
rit	-11.621
▁내어	-11.621
▁뾰족	-11.6211
λ	-11.6211
得	-11.6211
▁어쩔	-11.6211
봉사	-11.6214
▁떼	-11.6215
▁역명	-11.6216
킴	-11.6216
크레	-11.6216
▁*	-11.6217
▁강철	-11.6219
▁클라우드	-11.6221
▁러시아와	-11.6222
▁하노이	-11.6222
▁습지	-11.6222
▁수여받았다	-11.6222
▁국민투표	-11.6223
▁왕건	-11.6223
▁체크	-11.6224
▁브라더스	-11.6224
▁긍정적	-11.6226
사거리	-11.6226
▁찾아내	-11.6226
▁송신	-11.6227
▁제갈량	-11.6229
顯	-11.6231
▁아키텍처	-11.6231
▁뚜렷	-11.6231
▁오리온	-11.6231
▁왕세자	-11.6232
도서관은	-11.6232
▁아마존	-11.6233
▁이뤄지	-11.6234
▁사업자	-11.6234
▁강조했다	-11.6237
▁레인	-11.6239
르드	-11.624
긍	-11.624
LC	-11.624
체인	-11.6241
▁정세	-11.6241
▁1891	-11.6242
▁회상	-11.6242
천명	-11.6243
▁행동에	-11.6243
▁추첨	-11.6243
▁여겼다	-11.6243
▁나갈	-11.6244
▁|	-11.6245
▁채무	-11.6247
▁한중	-11.6247
▁반역	-11.6247
▁상용	-11.6247
▁나를	-11.6248
▁카타르	-11.6248
▁은상	-11.6248
BE	-11.6249
▁쓰러	-11.6249
피트	-11.625
▁몬테네그로	-11.625
▁자결	-11.6251
▁이겨	-11.6251
▁일주일	-11.6251
▁같아	-11.6252
▁강화도	-11.6252
ative	-11.6254
▁포터	-11.6255
▁설립되어	-11.6256
▁기간은	-11.6256
duc	-11.6257
▁내무부	-11.6258
▁동시대	-11.626
▁걸린	-11.626
▁프랭클린	-11.626
산과	-11.6261
▁죽기	-11.6264
들러	-11.6264
▁표현주의	-11.6264
▁나타나지	-11.6264
▁심하게	-11.6265
▁오로지	-11.6265
노는	-11.6266
사용	-11.6269
David	-11.6272
▁최소화	-11.6272
▁조약이	-11.6273
FI	-11.6273
▁바치	-11.6273
▁경쟁을	-11.6273
men	-11.6274
▁학설	-11.6275
▁Na	-11.6276
DR	-11.6278
▁왕을	-11.6278
▁옆면	-11.6279
2000	-11.6279
▁텍사스주	-11.6279
복음	-11.628
▁`	-11.628
崇	-11.628
妃	-11.628
▁늘어났다	-11.6281
▁치루	-11.6282
▁단점	-11.6283
▁트라이	-11.6284
▁배속	-11.6285
▁예시	-11.6285
시다	-11.6285
▁내야수	-11.6286
▁혼란을	-11.6286
륵	-11.6286
Lo	-11.6287
▁결별	-11.6287
▁생체	-11.6287
윙	-11.6288
▁레스토랑	-11.629
仲	-11.629
장비	-11.629
▁넷째	-11.629
▁장군은	-11.629
곡의	-11.6291
법률	-11.6292
▁공개했다	-11.6293
▁모시고	-11.6294
▁지리적	-11.6294
▁컸다	-11.6295
자였다	-11.6295
▁작사가	-11.6295
▁피고	-11.6295
▁개체수	-11.6297
▁생전에	-11.6297
▁예전에	-11.6297
▁평창	-11.6297
▁전위	-11.6299
▁시직경	-11.63
▁접근할	-11.6301
대책	-11.6303
dr	-11.6305
▁진해	-11.6305
▁중령	-11.6306
▁엔트리	-11.6312
▁했기	-11.6313
▁깨어	-11.6313
▁지식인	-11.6314
▁일조	-11.6314
▁담당한다	-11.6314
▁메카	-11.6315
보수	-11.6315
▁하였지만	-11.6318
▁International	-11.632
▁하노버	-11.632
▁펼친	-11.632
▁CO	-11.6322
ring	-11.6323
▁텔	-11.6323
자격	-11.6324
일자	-11.6324
▁제주시	-11.6324
▁신화에	-11.6325
▁노선으로	-11.6327
진영	-11.6327
う	-11.633
껏	-11.633
▁듀얼	-11.6331
▁유래되었다	-11.6332
력에	-11.6333
▁보존되어	-11.6333
▁선수들은	-11.6335
비로	-11.6335
들보다	-11.6337
▁대기업	-11.6337
▁ch	-11.6339
제도를	-11.6341
▁참사	-11.6341
▁정변	-11.6341
멘트	-11.6342
▁입학하여	-11.6342
명종	-11.6343
▁호프	-11.6345
主義	-11.6348
▁삼척	-11.6349
▁효고현	-11.635
fa	-11.6352
실장	-11.6352
쓰구	-11.6357
▁전통적	-11.6358
▁•	-11.6359
▁프로그래머	-11.636
▁예수회	-11.636
해줄	-11.6362
▁경찰이	-11.6362
▁제정된	-11.6362
▁느껴	-11.6367
▁성곽	-11.6367
▁행정동	-11.6368
엑스	-11.6368
▁현재도	-11.6369
▁시기에는	-11.6369
봉산	-11.6369
▁코치를	-11.6371
▁흥미를	-11.6371
▁상관없이	-11.6371
▁교육과정	-11.6374
레프	-11.6375
▁오기	-11.6375
▁않아도	-11.6375
▁국악	-11.6376
▁여배우	-11.6376
▁기업이	-11.6376
▁미사일을	-11.6376
▁가솔린	-11.638
▁스릴러	-11.638
▁문화와	-11.6381
코마	-11.6381
중의	-11.6382
▁이라는	-11.6382
▁분파	-11.6382
▁차르	-11.6383
즈를	-11.6383
▁닭	-11.6384
▁순으로	-11.6384
▁김준	-11.6386
系	-11.639
魚	-11.639
慧	-11.639
▁열심히	-11.639
▁계속된	-11.639
▁군이	-11.639
성우	-11.639
올림픽	-11.6391
▁예정이었으나	-11.6392
▁노래이다	-11.6392
▁지붕돌	-11.6392
oli	-11.6393
파에	-11.6393
▁독성	-11.6393
▁종영	-11.6394
▁왕실의	-11.6396
트랙	-11.6398
라운드에서	-11.6398
▁아이치현	-11.64
▁폭포	-11.64
▁지나가	-11.6401
홈	-11.6401
▁통치자	-11.6401
str	-11.6403
▁받았다고	-11.6405
▁누적	-11.6405
▁로마에서	-11.6406
하되	-11.6406
▁낙양	-11.6407
▁질소	-11.6408
Gr	-11.6409
▁제도는	-11.6409
긋	-11.641
템	-11.641
▁비례대표	-11.641
▁덤	-11.6412
▁mi	-11.6412
▁제작에	-11.6412
갱	-11.6412
▁해안에	-11.6413
▁본래의	-11.6413
기까지	-11.6414
▁자체의	-11.6415
▁관계없이	-11.6415
▁다크	-11.6415
▁1866	-11.6415
▁총선거	-11.6415
▁이소	-11.6416
타리	-11.6418
보컬	-11.6419
▁조형	-11.6419
▁방송인	-11.6419
▁어렵게	-11.642
▁단층	-11.6422
링크	-11.6423
▁Star	-11.6424
▁교회를	-11.6425
▁가격이	-11.6425
▁강변	-11.6426
▁뻔	-11.6426
▁지휘를	-11.6428
분자	-11.6428
카미	-11.6429
▁토끼	-11.6429
즌	-11.643
▁회피	-11.643
舍	-11.643
▁위와	-11.6432
시온	-11.6432
▁도장	-11.6432
▁들어가게	-11.6434
▁휴가	-11.6435
▁이산	-11.6437
▁지침	-11.6437
▁준결승	-11.6437
▁안전한	-11.6439
▁결승에서	-11.644
▁아날로그	-11.644
악기	-11.6441
▁활주로	-11.6442
▁습윤	-11.6442
▁후지와라노	-11.6442
▁형인	-11.6443
▁언어는	-11.6444
▁스튜디오에서	-11.6445
▁대원군	-11.6445
▁소속기관	-11.6446
▁의회에서	-11.6447
▁제우스	-11.6447
▁슈트	-11.6448
▁방문하여	-11.6449
▁신동	-11.6449
섬유	-11.645
ε	-11.645
▁프란체스코	-11.645
▁휩쓸	-11.645
▁경과	-11.6452
▁수용할	-11.6452
▁도쿄에서	-11.6455
▁이상한	-11.6456
▁항우	-11.6457
▁국정원	-11.6459
도쿄	-11.646
宇	-11.6461
▁시애틀	-11.6461
姓	-11.6461
▁전하고	-11.6461
▁퇴직	-11.6462
레인	-11.6462
▁관우	-11.6464
▁김명	-11.6465
▁가루	-11.6465
▁메타	-11.6466
▁초등	-11.6468
▁번창	-11.6468
▁두가지	-11.6469
▁지상파	-11.6469
産	-11.6471
▁신형	-11.6471
▁프랑스가	-11.6472
▁불규칙	-11.6473
▁1861	-11.6474
rus	-11.6476
▁시나	-11.6477
▁힘으로	-11.6477
▁의혹이	-11.6477
~9	-11.6478
▁설립자	-11.648
▁참가자	-11.6482
▁이빨	-11.6482
app	-11.6483
▁드레	-11.6484
렀	-11.6484
IV	-11.6485
광주	-11.6485
▁높이가	-11.6486
▁앨범이	-11.6486
▁경제적으로	-11.6487
▁옥천	-11.6487
/4	-11.6488
▁노선이다	-11.6491
▁교육의	-11.6491
▁열차를	-11.6491
▁쓰레기	-11.6491
▁받아들였다	-11.6492
▁구하는	-11.6492
Ka	-11.6492
하르	-11.6494
▁쉽지	-11.6495
▁매사추세츠	-11.6495
▁주름	-11.6496
▁소피아	-11.6498
▁선생의	-11.6498
▁복합체	-11.6499
▁전전	-11.65
▁시국	-11.6501
▁메커니즘	-11.6501
▁헤이안	-11.6503
파로	-11.6505
광년	-11.6505
HL	-11.6507
▁유력한	-11.6508
▁연꽃	-11.6509
권에서	-11.651
▁체스	-11.651
▁논란을	-11.6511
▁스크린도어가	-11.6511
▁별명이	-11.6512
▁알파벳	-11.6512
▁제국주의	-11.6512
▁겹쳐	-11.6512
▁El	-11.6512
▁양자로	-11.6513
순위로	-11.6513
▁1881	-11.6513
▁쥬	-11.6516
▁압도	-11.6516
▁부제	-11.6516
▁정확	-11.6516
영조	-11.6518
면이	-11.652
▁잃게	-11.6522
▁사용되기도	-11.6524
▁확실하지	-11.6524
William	-11.6525
프와	-11.6526
▁도스	-11.6527
▁토리노	-11.6527
▁가타	-11.6528
▁오산	-11.6528
레인저	-11.6528
▁인물을	-11.6528
▁리본	-11.6529
▁마을이	-11.6529
발의	-11.653
▁일으킨다	-11.653
▁병기	-11.653
▁조르	-11.6531
鄕	-11.6532
James	-11.6532
▁사회당	-11.6532
▁못했던	-11.6532
▁가르침	-11.6533
▁엔지니어	-11.6534
제주	-11.6535
코리아	-11.6535
▁관찰사	-11.6536
▁시야	-11.6536
▁심사위원	-11.6537
▁여러번	-11.6537
~15	-11.6539
▁시신	-11.654
[...]
